{"version":"1.0","truncation":null,"padding":null,"added_tokens":[{"id":0,"special":true,"content":"[UNK]","single_word":false,"lstrip":false,"rstrip":false,"normalized":false},{"id":1,"special":true,"content":"[CLS]","single_word":false,"lstrip":false,"rstrip":false,"normalized":false},{"id":2,"special":true,"content":"[SEP]","single_word":false,"lstrip":false,"rstrip":false,"normalized":false},{"id":3,"special":true,"content":"[PAD]","single_word":false,"lstrip":false,"rstrip":false,"normalized":false},{"id":4,"special":true,"content":"[MASK]","single_word":false,"lstrip":false,"rstrip":false,"normalized":false}],"normalizer":{"type":"Sequence","normalizers":[{"type":"NFC"},{"type":"Lowercase"}]},"pre_tokenizer":{"type":"ByteLevel","add_prefix_space":true,"trim_offsets":true},"post_processor":{"type":"TemplateProcessing","single":[{"SpecialToken":{"id":"[CLS]","type_id":0}},{"Sequence":{"id":"A","type_id":0}},{"SpecialToken":{"id":"[SEP]","type_id":0}}],"pair":[{"SpecialToken":{"id":"[CLS]","type_id":0}},{"Sequence":{"id":"A","type_id":0}},{"SpecialToken":{"id":"[SEP]","type_id":0}},{"Sequence":{"id":"B","type_id":1}},{"SpecialToken":{"id":"[SEP]","type_id":1}}],"special_tokens":{"[CLS]":{"id":"[CLS]","ids":[1],"tokens":["[CLS]"]},"[SEP]":{"id":"[SEP]","ids":[2],"tokens":["[SEP]"]}}},"decoder":null,"model":{"type":"BPE","dropout":null,"unk_token":"[UNK]","continuing_subword_prefix":"$$","end_of_word_suffix":null,"fuse_unk":false,"vocab":{"[UNK]":0,"[CLS]":1,"[SEP]":2,"[PAD]":3,"[MASK]":4,"!":5,"\"":6,"#":7,"$":8,"%":9,"&":10,"'":11,"(":12,")":13,"*":14,"+":15,",":16,"-":17,".":18,"/":19,"0":20,"1":21,"2":22,"3":23,"4":24,"5":25,"6":26,"7":27,"8":28,"9":29,":":30,";":31,"<":32,"=":33,">":34,"?":35,"@":36,"A":37,"B":38,"C":39,"D":40,"E":41,"F":42,"G":43,"H":44,"I":45,"J":46,"K":47,"L":48,"M":49,"N":50,"O":51,"P":52,"Q":53,"R":54,"S":55,"T":56,"U":57,"V":58,"W":59,"X":60,"Y":61,"Z":62,"[":63,"\\":64,"]":65,"^":66,"_":67,"`":68,"a":69,"b":70,"c":71,"d":72,"e":73,"f":74,"g":75,"h":76,"i":77,"j":78,"k":79,"l":80,"m":81,"n":82,"o":83,"p":84,"q":85,"r":86,"s":87,"t":88,"u":89,"v":90,"w":91,"x":92,"y":93,"z":94,"{":95,"|":96,"}":97,"~":98,"¡":99,"¢":100,"£":101,"¤":102,"¥":103,"¦":104,"§":105,"¨":106,"©":107,"ª":108,"«":109,"¬":110,"®":111,"¯":112,"°":113,"±":114,"²":115,"³":116,"´":117,"µ":118,"¶":119,"·":120,"¸":121,"¹":122,"º":123,"»":124,"¼":125,"½":126,"¾":127,"¿":128,"À":129,"Á":130,"Â":131,"Ã":132,"Ä":133,"Å":134,"Æ":135,"Ç":136,"È":137,"É":138,"Ê":139,"Ë":140,"Ì":141,"Í":142,"Î":143,"Ï":144,"Ð":145,"Ñ":146,"Ò":147,"Ó":148,"Ô":149,"Õ":150,"Ö":151,"×":152,"Ø":153,"Ù":154,"Ú":155,"Û":156,"Ü":157,"Ý":158,"Þ":159,"ß":160,"à":161,"á":162,"â":163,"ã":164,"ä":165,"å":166,"æ":167,"ç":168,"è":169,"é":170,"ê":171,"ë":172,"ì":173,"í":174,"î":175,"ï":176,"ð":177,"ñ":178,"ò":179,"ó":180,"ô":181,"õ":182,"ö":183,"÷":184,"ø":185,"ù":186,"ú":187,"û":188,"ü":189,"ý":190,"þ":191,"ÿ":192,"Ā":193,"ā":194,"Ă":195,"ă":196,"Ą":197,"ą":198,"Ć":199,"ć":200,"Ĉ":201,"ĉ":202,"Ċ":203,"ċ":204,"Č":205,"č":206,"Ď":207,"ď":208,"Đ":209,"đ":210,"Ē":211,"ē":212,"Ĕ":213,"ĕ":214,"Ė":215,"ė":216,"Ę":217,"ę":218,"Ě":219,"ě":220,"Ĝ":221,"ĝ":222,"Ğ":223,"ğ":224,"Ġ":225,"ġ":226,"Ģ":227,"ģ":228,"Ĥ":229,"ĥ":230,"Ħ":231,"ħ":232,"Ĩ":233,"ĩ":234,"Ī":235,"ī":236,"Ĭ":237,"ĭ":238,"Į":239,"į":240,"İ":241,"ı":242,"Ĳ":243,"ĳ":244,"Ĵ":245,"ĵ":246,"Ķ":247,"ķ":248,"ĸ":249,"Ĺ":250,"ĺ":251,"Ļ":252,"ļ":253,"Ľ":254,"ľ":255,"Ŀ":256,"ŀ":257,"Ł":258,"ł":259,"Ń":260,"$$b":261,"$$a":262,"$$Ã":263,"$$¾":264,"$$l":265,"$$y":266,"$$i":267,"$$d":268,"$$k":269,"$$z":270,"$$¶":271,"$$r":272,"$$n":273,"$$e":274,"$$t":275,"$$s":276,"$$Ä":277,"$$±":278,"$$o":279,"$$p":280,"$$v":281,"$$c":282,"$$¼":283,"$$m":284,"$$g":285,"$$Ñ":286,"$$į":287,"$$Ø":288,"$$§":289,"$$Ù":290,"$$Ħ":291,"$$ª":292,"$$Ĭ":293,"$$©":294,"$$u":295,"$$h":296,"$$Ł":297,"$$w":298,"$$f":299,"$$Å":300,"$$x":301,"$$»":302,"$$½":303,"$$³":304,"$$¬":305,"$$q":306,"$$¢":307,"$$5":308,"$$7":309,"$$1":310,"$$0":311,"$$2":312,"$$3":313,"$$9":314,"$$Ð":315,"$$°":316,"$$6":317,"$$8":318,"$$j":319,"$$4":320,"$$µ":321,"$$Ĥ":322,"$$ģ":323,"$$ĥ":324,"$$¿":325,"$$Į":326,"$$É":327,"$$×":328,"$$Ļ":329,"$$ĳ":330,"$$Ĳ":331,"$$Î":332,"$$º":333,"$$¸":334,"$$Ģ":335,"$$Ĩ":336,"$$ĭ":337,"$$¤":338,"$$ï":339,"$$ľ":340,"$$ã":341,"$$®":342,"$$İ":343,"$$«":344,"$$Ĵ":345,"$$æ":346,"$$å":347,"$$ħ":348,"$$¥":349,"$$Ĺ":350,"$$ı":351,"$$â":352,"$$Ï":353,"$$ĩ":354,"$$·":355,"$$¹":356,"$$¡":357,"$$:":358,"$$=":359,"$$)":360,"$$Þ":361,"$$Ë":362,"$$²":363,"$$Ī":364,"$$á":365,"$$£":366,"$$Ą":367,"$$ķ":368,"$$ä":369,"$$¯":370,"$$Ê":371,"$$´":372,"$$Ľ":373,"$$é":374,"$$Ķ":375,"$$Ŀ":376,"$$Ń":377,"$$ç":378,"$$ĸ":379,"$$ī":380,"$$.":381,"$$È":382,"$$ć":383,"$$Ĉ":384,"$$Ć":385,"$$ļ":386,"$$ł":387,"$$¨":388,"$$ð":389,"$$ĵ":390,"$$è":391,"$$Â":392,"$$ĺ":393,"$$;":394,"$$?":395,"$$>":396,"$$¦":397,"$$ŀ":398,"$$\\":399,"$$-":400,"$$ì":401,"$$í":402,"$$ë":403,"$$ê":404,"$$]":405,"$$}":406,"$$,":407,"$$à":408,"$$+":409,"$$/":410,"$$Ē":411,"$$ą":412,"$$\"":413,"$$*":414,"$$(":415,"$$_":416,"$$'":417,"$$Ç":418,"$$Û":419,"$$!":420,"$$#":421,"$$[":422,"$$Ò":423,"$$Ā":424,"$$ā":425,"$$&":426,"$$~":427,"$$|":428,"$$Ì":429,"$$Ü":430,"$$$":431,"$$Õ":432,"$$Ö":433,"$$<":434,"$${":435,"$$@":436,"$$Ú":437,"$$%":438,"$$`":439,"$$^":440,"$$Ó":441,"$$Ô":442,"$$Ę":443,"$$Ġ":444,"$$Ċ":445,"$$Í":446,"$$Æ":447,"$$ě":448,"$$ę":449,"$$ñ":450,"$$Ă":451,"$$ė":452,"$$ď":453,"$$Ė":454,"$$Ğ":455,"$$î":456,"$$Ĕ":457,"$$ß":458,"$$đ":459,"$$Đ":460,"$$Ď":461,"$$ğ":462,"$$ē":463,"$$ġ":464,"$$ĕ":465,"$$Ě":466,"$$Ý":467,"$$ă":468,"$$ó":469,"$$ĝ":470,"$$ò":471,"$$ô":472,"$$ĉ":473,"$$Ĝ":474,"$$Ä±":475,"$$ar":476,"$$er":477,"$$Ã¼":478,"$$an":479,"Ġb":480,"$$in":481,"$$ÅŁ":482,"Ġk":483,"$$en":484,"Ġd":485,"Ġs":486,"$$Ä±n":487,"$$il":488,"$$ir":489,"$$Ã§":490,"$$ÄŁ":491,"Ġy":492,"$$al":493,"Ġg":494,"$$ak":495,"$$Ã¶":496,"Ġt":497,"Ġo":498,"$$lar":499,"$$ek":500,"$$el":501,"Ġv":502,"Ġi":503,"$$ma":504,"$$et":505,"Ġh":506,"$$la":507,"Ġa":508,"$$un":509,"$$da":510,"$$ler":511,"$$de":512,"Ġve":513,"Ġm":514,"$$es":515,"$$or":516,"$$iy":517,"$$iz":518,"$$im":519,"Ġbir":520,"$$em":521,"$$ik":522,"$$at":523,"$$on":524,"$$Ä±r":525,"$$ur":526,"ĠÃ§":527,"$$ay":528,"$$ed":529,"$$as":530,"$$Ã¼n":531,"Ġol":532,"$$lÄ±":533,"Ġya":534,"$$ul":535,"Ġp":536,"$$Ã¼r":537,"$$is":538,"âĢ":539,"$$ey":540,"ĠÃ¶":541,"$$am":542,"Ġf":543,"$$Ä±m":544,"$$iÅŁ":545,"$$it":546,"Ġde":547,"$$Ä±l":548,"$$le":549,"$$Ä±ÅŁ":550,"Ġil":551,"$$aÅŁ":552,"$$um":553,"Ìĩ":554,"$$Ä±z":555,"Ġal":556,"$$Ä±k":557,"$$ah":558,"âĢĻ":559,"Ġbu":560,"$$li":561,"Ġn":562,"ĠÅŁ":563,"$$ab":564,"$$dan":565,"ĠgÃ¶":566,"ĠiÃ§":567,"$$Ä±nda":568,"Ġar":569,"$$ya":570,"$$Ã¼z":571,"$$lan":572,"$$az":573,"$$ad":574,"$$ok":575,"$$aÄŁ":576,"Ġyap":577,"$$ce":578,"$$larÄ±n":579,"$$ini":580,"$$st":581,"$$inde":582,"Ġr":583,"$$ine":584,"$$ol":585,"$$di":586,"$$dÄ±":587,"Ġe":588,"$$larÄ±":589,"$$du":590,"Ġu":591,"$$esi":592,"$$mas":593,"$$den":594,"$$Ã¼k":595,"Ġan":596,"ĠbaÅŁ":597,"Ġc":598,"$$leri":599,"Ġda":600,"Ġz":601,"ĠiÃ§in":602,"$$Ã¼m":603,"$$iler":604,"$$alar":605,"$$yor":606,"$$eler":607,"$$mak":608,"Ġ1":609,"$$ti":610,"$$iyor":611,"Ġ2":612,"Ġile":613,"$$Ä±nÄ±":614,"Ġkar":615,"$$af":616,"$$ev":617,"ĠgÃ¶r":618,"$$tÄ±":619,"$$Ã¼l":620,"Ġet":621,"Ġed":622,"$$cak":623,"$$uz":624,"Ġson":625,"$$ÄŁi":626,"$$inin":627,"$$ap":628,"$$uÅŁ":629,"$$iye":630,"$$oÄŁ":631,"$$lik":632,"$$ut":633,"Ġbil":634,"$$âĢ":635,"$$dir":636,"$$Ä±na":637,"$$ec":638,"Ġgel":639,"Ġay":640,"Ġver":641,"Ġger":642,"$$eÃ§":643,"$$tir":644,"$$Ä±s":645,"ĠÃ¶n":646,"Ġkon":647,"$$ilir":648,"Ġen":649,"$$uk":650,"$$Ã¶n":651,"$$iniz":652,"$$ÄŁÄ±":653,"$$dÄ±r":654,"$$us":655,"$$eb":656,"$$mek":657,"$$lÄ±k":658,"$$larak":659,"Ġtar":660,"$$te":661,"$$ta":662,"Ġin":663,"$$tan":664,"$$len":665,"$$Ã¼ÅŁ":666,"Ġoldu":667,"$$ez":668,"$$tÄ±r":669,"Ġ(":670,"Ġolarak":671,"$$ip":672,"$$cÄ±":673,"$$ib":674,"Ġkur":675,"$$ro":676,"$$masÄ±":677,"$$anÄ±":678,"ĠdeÄŁ":679,"ĠiÅŁ":680,"Ġma":681,"ĠâĢ":682,"Ġor":683,"$$Ä±ndan":684,"Ġyer":685,"$$lay":686,"$$av":687,"ĠÃ§ok":688,"$$ilm":689,"Ġbel":690,"ĠgÃ¼n":691,"$$Ã¼y":692,"$$unu":693,"Ġkal":694,"Ġolan":695,"Ġkul":696,"$$man":697,"$$Ã¼rk":698,"$$laÅŁ":699,"Ġdah":700,"$$lem":701,"$$mÄ±ÅŁ":702,"Ġko":703,"Ġbul":704,"Ġkad":705,"$$edi":706,"Ġher":707,"$$asÄ±":708,"$$lu":709,"$$se":710,"$$imiz":711,"ĠyÄ±l":712,"ĠaÃ§":713,"$$ra":714,"ĠÃ¶z":715,"$$op":716,"Ġist":717,"$$eÅŁ":718,"Ġdaha":719,"Ġkullan":720,"$$Ä±nÄ±n":721,"Ġuy":722,"$$Ã¶y":723,"$$ibi":724,"$$eni":725,"$$ih":726,"ĠsÃ¼r":727,"$$ca":728,"Ġyar":729,"ĠÃ§al":730,"Ġak":731,"$$yon":732,"$$me":733,"$$..":734,"$$ili":735,"Ġ20":736,"$$alÄ±":737,"Ġel":738,"Ġken":739,"$$ama":740,"$$ark":741,"ĠgeÃ§":742,"ĠolduÄŁ":743,"$$isi":744,"$$Ã¶r":745,"Ġvar":746,"ĠyaÅŁ":747,"$$ki":748,"Ġek":749,"Ġon":750,"ĠÃ§alÄ±ÅŁ":751,"ĠtÃ¼rk":752,"$$lerin":753,"$$aki":754,"$$eki":755,"Ġpro":756,"Ġl":757,"$$ÄŁr":758,"ĠÃ§Ä±k":759,"$$ecek":760,"Ġgibi":761,"$$san":762,"$$aÃ§":763,"ĠÃ¼z":764,"$$ic":765,"ĠyÃ¶n":766,"$$aman":767,"$$Ä±yor":768,"ĠâĢľ":769,"Ġtek":770,"Ġsay":771,"$$ilen":772,"ĠsaÄŁ":773,"$$eli":774,"$$Ä±mÄ±z":775,"$$malar":776,"$$yla":777,"$$Ä±lÄ±":778,"$$eye":779,"$$met":780,"Ġkay":781,"$$ada":782,"$$os":783,"$$ers":784,"Ġgerek":785,"ĠÃ¼zer":786,"$$eden":787,"$$eh":788,"$$Ã¼t":789,"Ġpar":790,"Ġdev":791,"Ġhal":792,"$$lama":793,"Ġyaz":794,"$$erk":795,"$$ist":796,"$$eri":797,"ĠbaÅŁk":798,"Ġgen":799,"$$leÅŁ":800,"$$lÃ¼":801,"Ġtop":802,"ĠbÃ¼y":803,"Ġ3":804,"Ġbulun":805,"$$unda":806,"ĠmÃ¼":807,"ĠdoÄŁ":808,"Ġad":809,"$$ru":810,"Ġbak":811,"$$miÅŁ":812,"Ġyan":813,"Ġoy":814,"Ġben":815,"$$Ã¢":816,"Ġama":817,"$$Ä±nÄ±z":818,"Ġsor":819,"$$iyet":820,"$$sa":821,"$$let":822,"$$gi":823,"$$Ä±lan":824,"Ġkadar":825,"$$ece":826,"$$om":827,"âĢĿ":828,"Ġdur":829,"$$inden":830,"Ġzaman":831,"ĠÃ¼":832,"$$iyle":833,"$$Ã¶z":834,"Ġkat":835,"$$Ã¶l":836,"ĠÃ¼r":837,"ĠdÃ¼ÅŁ":838,"ĠkarÅŁ":839,"ĠgÃ¼":840,"Ġola":841,"Ġev":842,"$$ter":843,"Ä±":844,"Ġsah":845,"$$tur":846,"Ġbo":847,"Ġkap":848,"Ġuyg":849,"ĠeÄŁ":850,"'d":851,"ĠÃ¶zel":852,"$$ac":853,"Ġhay":854,"$$ade":855,"Ġsonra":856,"Ġes":857,"Ġne":858,"$$men":859,"$$asÄ±nda":860,"$$daki":861,"Ġtaraf":862,"ĠÃ¶ÄŁr":863,"Ġhak":864,"$$if":865,"$$uy":866,"$$lara":867,"$$aya":868,"$$ep":869,"$$arak":870,"$$id":871,"$$ot":872,"Ġsiz":873,"$$ekt":874,"ĠdÃ¶n":875,"$$edir":876,"$$cu":877,"Ġbun":878,"ĠÅŁek":879,"Ġ201":880,"$$arÄ±":881,"ĠbÃ¼yÃ¼k":882,"Ġyeni":883,"$$larÄ±nÄ±":884,"Ġolma":885,"ĠbÃ¶l":886,"$$imi":887,"$$ede":888,"Ġbiz":889,"$$ken":890,"$$ans":891,"Ġyak":892,"$$dÄ±ÄŁ":893,"Ġise":894,"Ġden":895,"$$lam":896,"Ġuz":897,"$$iÃ§":898,"Ġalan":899,"Ġok":900,"$$aÄŁÄ±":901,"Ġtak":902,"Ġbelir":903,"Ġdo":904,"$$siniz":905,"$$00":906,"Ġsev":907,"Ġ\"":908,"Ġtem":909,"Ġmil":910,"$$ÄŁini":911,"nin":912,"$$lerini":913,"Ġsan":914,"$$dÄ±ÄŁÄ±":915,"ĠgerÃ§":916,"$$ef":917,"Ġas":918,"ĠdÃ¼z":919,"Ġser":920,"Ġ-":921,"...":922,"$$ci":923,"ĠyÃ¼k":924,"Ġgir":925,"ĠkiÅŁ":926,"Ġkend":927,"Ġat":928,"Ġveya":929,"$$abilir":930,"$$maya":931,"$$erek":932,"$$eleri":933,"ÅŁ":934,"in":935,"$$deki":936,"Ġort":937,"$$dÃ¼r":938,"$$Ä±sÄ±":939,"ĠyÃ¼z":940,"$$elik":941,"Ġder":942,"$$iv":943,"Ġhar":944,"$$esinde":945,"Ġ4":946,"Ġyol":947,"$$sel":948,"Ġhem":949,"Ġmu":950,"$$adÄ±r":951,"Ġhas":952,"$$dÄ±m":953,"ĠtÃ¼rkiye":954,"Ġiy":955,"Ġer":956,"$$larda":957,"ĠkarÅŁÄ±":958,"$$ram":959,"Ä±n":960,"ĠbaÄŁ":961,"$$acak":962,"$$ildi":963,"$$mekt":964,"ĠaÃ§Ä±k":965,"Ġ5":966,"ĠdÃ¼n":967,"$$ley":968,"$$lere":969,"$$makt":970,"Ġilg":971,"$$iÄŁ":972,"$$oc":973,"$$yan":974,"Ġtarih":975,"Ġhiz":976,"$$est":977,"$$etim":978,"Ġinsan":979,"ĠÃ¶nem":980,"$$kin":981,"$$ster":982,"$$iyat":983,"Ġhizmet":984,"Ġmo":985,"$$lÄ±ÄŁÄ±":986,"$$iÅŁtir":987,"Ġhaz":988,"ĠseÃ§":989,"ĠtarafÄ±ndan":990,"Ġalt":991,"Ġilk":992,"Ġsu":993,"ĠdeÄŁil":994,"Ġbur":995,"Ġayr":996,"ĠgÃ¶re":997,"$$Ä±p":998,"Ġfark":999,"$$sun":1000,"ĠsÃ¶y":1001,"Ġki":1002,"Ġyet":1003,"Ġdurum":1004,"ĠgerÃ§ek":1005,"ĠtÃ¼m":1006,"ĠÅŁekil":1007,"$$Ã¼s":1008,"$$maktadÄ±r":1009,"ĠeÄŁit":1010,"$$ÄŁu":1011,"ĠÃ¶ÄŁren":1012,"ĠaÅŁ":1013,"ĠgÃ¶ster":1014,"$$art":1015,"Ġkan":1016,"Ġkurul":1017,"Ġbilg":1018,"Ġce":1019,"ĠsÃ¶z":1020,"Ġiz":1021,"$$bilir":1022,"$$aat":1023,"$$eyi":1024,"$$mektedir":1025,"ĠoluÅŁ":1026,"Ġyay":1027,"$$tr":1028,"$$uyor":1029,"Ġyok":1030,"Ġiyi":1031,"ĠolduÄŁu":1032,"Ġem":1033,"$$asyon":1034,"ĠÃ¼l":1035,"ĠgÃ¶z":1036,"$$mesi":1037,"$$liÄŁi":1038,"Ġkaz":1039,"$$ten":1040,"$$ebilir":1041,"$$lat":1042,"$$larÄ±nÄ±n":1043,"Ġaz":1044,"$$tÄ±k":1045,"$$Ä±la":1046,"$$enin":1047,"Ġter":1048,"$$der":1049,"$$tik":1050,"ĠsÄ±r":1051,"$$ileri":1052,"$$unun":1053,"Ġgenel":1054,"$$aret":1055,"$$ven":1056,"ĠÃ¼n":1057,"ĠÃ§ek":1058,"$$etir":1059,"$$muÅŁ":1060,"Ġneden":1061,"Ġsat":1062,"$$Ä±mÄ±":1063,"$$yÄ±":1064,"Ġih":1065,"$$dur":1066,"ĠdeÄŁer":1067,"Ġkor":1068,"$$Ã¼zel":1069,"ĠÅŁekilde":1070,"$$aber":1071,"$$una":1072,"Ġsit":1073,"$$¿½":1074,"Ġis":1075,"Ġtut":1076,"Ġgetir":1077,"$$alÄ±k":1078,"Ġdevam":1079,"$$bir":1080,"Ġw":1081,"$$bul":1082,"Ġbas":1083,"Ġbin":1084,"$$ara":1085,"$$raf":1086,"ĠtaÅŁ":1087,"$$Ã¼nÃ¼":1088,"Ġot":1089,"$$eÄŁ":1090,"$$Ä±cÄ±":1091,"$$up":1092,"Ġhat":1093,"nÄ±n":1094,"$$istem":1095,"$$lÄ±ÄŁ":1096,"ĠÃ¼lk":1097,"Ġayn":1098,"$$bil":1099,"$$olo":1100,"ĠÅŁey":1101,"Ġtan":1102,"$$dÃ¼":1103,"Ġark":1104,"$$iÄŁer":1105,"Ġilgili":1106,"$$larÄ±na":1107,"ĠyapÄ±l":1108,"$$re":1109,"Ġsahip":1110,"$$ret":1111,"Ġmes":1112,"$$leÅŁtir":1113,"ĠdÃ¼zen":1114,"Ã§":1115,"$$erkez":1116,"$$ocuk":1117,"ĠeÄŁitim":1118,"$$abil":1119,"ĠgÃ¼zel":1120,"$$ran":1121,"Ġsistem":1122,"Ġtes":1123,"$$lerde":1124,"Ġmal":1125,"Ġsonu":1126,"ĠkÄ±s":1127,"Ġhayat":1128,"$$han":1129,"ĠÃ¶r":1130,"Ġav":1131,"$$esine":1132,"da":1133,"$$tar":1134,"Ġdem":1135,"Ġfaz":1136,"Ġada":1137,"$$ayan":1138,"ĠdÄ±ÅŁ":1139,"$$dÄ±k":1140,"$$por":1141,"ĠÃ¶nemli":1142,"Ġ6":1143,"Ġhakk":1144,"Ġoyun":1145,"$$tÃ¼r":1146,"Ġede":1147,"Ġmerkez":1148,"$$lah":1149,"$$usu":1150,"Ġetti":1151,"Ġban":1152,"$$iyorum":1153,"Ġbirlik":1154,"$$lendir":1155,"Ġ19":1156,"ĠdiÄŁer":1157,"ĠolduÄŁunu":1158,"$$si":1159,"Ġduy":1160,"ĠalÄ±n":1161,"Ġtekn":1162,"$$lerinin":1163,"$$sÄ±":1164,"$$Ã§e":1165,"ĠÃ§ocuk":1166,"ĠÃ¼rÃ¼n":1167,"ĠaÄŁ":1168,"$$sek":1169,"ĠkÃ¶":1170,"Ġab":1171,"ĠÃ¶nce":1172,"$$ilik":1173,"$$siz":1174,"ĠhazÄ±r":1175,"ĠgÃ¼ven":1176,"ĠhiÃ§":1177,"$$oloj":1178,"Ġfazla":1179,"Ġkim":1180,"ĠÃ¶l":1181,"$$esini":1182,"$$lerine":1183,"de":1184,"Ġbek":1185,"ĠaynÄ±":1186,"$$emiz":1187,"stan":1188,"ĠiÃ§er":1189,"$$Ã§a":1190,"Ġbaz":1191,"Ġzor":1192,"Ġkonu":1193,"ĠiÃ§inde":1194,"$$sÄ±z":1195,"$$larÄ±nda":1196,"ĠarasÄ±nda":1197,"Ġolur":1198,"ĠÅŁu":1199,"stanbul":1200,"ĠbÃ¶lg":1201,"$$Ã½":1202,"Ġuygu":1203,"Ġkab":1204,"$$Ã¶yle":1205,"Ġiki":1206,"$$dik":1207,"Ġhav":1208,"Ġdiye":1209,"Ġsen":1210,"$$esin":1211,"ĠeÅŁ":1212,"$$alarÄ±":1213,"ĠbaÅŁla":1214,"Ġkam":1215,"ĠdÃ¶nem":1216,"$$ide":1217,"Ġim":1218,"$$iÅŁim":1219,"$$Ä±ndaki":1220,"$$ÄŁiniz":1221,"$$likle":1222,"Ġdil":1223,"Ġtab":1224,"$$meye":1225,"Ġgelen":1226,"bu":1227,"$$gram":1228,"$$ehir":1229,"Ġtel":1230,"ĠyaptÄ±":1231,"Ġkit":1232,"$$maz":1233,"Ġkr":1234,"$$lardan":1235,"Ġetk":1236,"$$alan":1237,"$$Ã¼nde":1238,"Ġancak":1239,"Ġsaat":1240,"Ġ7":1241,"ï¿½":1242,"Ġyat":1243,"$$tu":1244,"ĠÃ¼st":1245,"ĠkonuÅŁ":1246,"Ġfir":1247,"$$gÃ¼n":1248,"ĠyapÄ±lan":1249,"$$diÄŁi":1250,"Ġmah":1251,"ĠyardÄ±m":1252,"Ġsun":1253,"$$malarÄ±":1254,"Ġboy":1255,"Ġsal":1256,"Ġj":1257,"$$eyen":1258,"Ġdik":1259,"ĠfarklÄ±":1260,"$$eti":1261,"Ġmak":1262,"Ġkazan":1263,"Ġnas":1264,"$$yal":1265,"$$mÄ±ÅŁtÄ±r":1266,"$$cel":1267,"ĠulaÅŁ":1268,"Ġbeled":1269,"$$01":1270,"Ġbirlikte":1271,"Ġhaf":1272,"ĠdÃ¼ÅŁÃ¼n":1273,"Ġsade":1274,"$$rup":1275,"Ġsav":1276,"ĠyÃ¼ksek":1277,"$$liÄŁ":1278,"$$ledi":1279,"ĠÃ¶nc":1280,"$$tÃ¼":1281,"Ġolmak":1282,"Ġam":1283,"$$ilmesi":1284,"Ġbey":1285,"ĠayrÄ±":1286,"Ġtas":1287,"Ġbah":1288,"$$ayÄ±":1289,"Ġmuh":1290,"$$Ã¼p":1291,"ĠgÃ¶rev":1292,"$$bet":1293,"Ġproj":1294,"Ġ,":1295,"Ġdav":1296,"an":1297,"Ġsadece":1298,"Ġolacak":1299,"Ġmut":1300,"Ġtur":1301,"Ġeden":1302,"ĠdoÄŁru":1303,"$$iyon":1304,"ĠbaÅŁkanÄ±":1305,"Ġkom":1306,"Ġkendi":1307,"Ġdedi":1308,"$$ivers":1309,"âĢ¦":1310,"$$kÃ¼":1311,"$$larla":1312,"ĠbÃ¼t":1313,"Ġmad":1314,"Ġtama":1315,"ĠiÅŁlem":1316,"$$ilerin":1317,"$$uv":1318,"$$iversit":1319,"$$ika":1320,"ĠtÃ¼r":1321,"ĠyÃ¶net":1322,"Ġprogram":1323,"$$lerinde":1324,"Ġtr":1325,"$$eniz":1326,"Ġ10":1327,"$$olu":1328,"$$ig":1329,"Ġif":1330,"ĠbÃ¶lÃ¼m":1331,"ĠdeÄŁiÅŁ":1332,"$$og":1333,"Ġ8":1334,"$$ne":1335,"Ġte":1336,"ĠÃ§Ä±kar":1337,"ĠÃ§ev":1338,"Ġgaz":1339,"$$malÄ±":1340,"Ġfak":1341,"ĠnasÄ±l":1342,"Ġres":1343,"Ġkarar":1344,"Ġbit":1345,"$$oz":1346,"Ġcan":1347,"Ġfiyat":1348,"Ġarkada":1349,"$$iyoruz":1350,"$$kan":1351,"ĠkadÄ±n":1352,"ĠgÃ¶rÃ¼n":1353,"$$Ä±zÄ±":1354,"$$masÄ±nÄ±":1355,"Ġso":1356,"$$ici":1357,"ĠÃ¼niversit":1358,"ĠiliÅŁ":1359,"$$ÄŁimiz":1360,"$$ulu":1361,"ĠÃ¼y":1362,"ĠdÃ¼nya":1363,"$$abilirsiniz":1364,"$$luk":1365,"ĠsÄ±k":1366,"$$orm":1367,"ĠbaÅŁkan":1368,"Ġli":1369,"Ġhaber":1370,"$$hur":1371,"$$layan":1372,"$$Ä±t":1373,"$$ulan":1374,"$$larÄ±mÄ±z":1375,"Ġdevlet":1376,"$$isinde":1377,"Ġbulunan":1378,"$$eme":1379,"$$masÄ±na":1380,"..":1381,"Ġfilm":1382,"$$kat":1383,"ĠsÄ±":1384,"ĠarkadaÅŁ":1385,"$$irk":1386,"$$ÄŁÃ¼":1387,"Ġuygun":1388,"$$âĢĿ":1389,"$$Ã¼ne":1390,"ĠmÃ¼dÃ¼r":1391,"$$lak":1392,"$$iyas":1393,"Ġfa":1394,"ĠgÃ¶n":1395,"Ġgid":1396,"Ġmet":1397,"ĠyayÄ±n":1398,"Ġiht":1399,"$$ahat":1400,"Ġman":1401,"201":1402,"Ã¼":1403,"ĠkÄ±":1404,"$$dar":1405,"Ġhan":1406,"Ġerk":1407,"Ġbelirt":1408,"Ġhalk":1409,"Ġkayn":1410,"Ġgit":1411,"$$mi":1412,"ĠbazÄ±":1413,"$$caÄŁ":1414,"ĠyÃ¼r":1415,"Ġmod":1416,"$$dÄ±ÄŁÄ±nÄ±":1417,"$$esinin":1418,"Ġdest":1419,"Ġart":1420,"$$net":1421,"Ġla":1422,"$$Ã®":1423,"Ġdin":1424,"ĠbÄ±r":1425,"Ġcum":1426,"$$gil":1427,"ĠgÃ¼Ã§":1428,"$$uma":1429,"Ġ:":1430,"$$anÄ±n":1431,"ĠolmasÄ±":1432,"$$gu":1433,"Ġtasar":1434,"ĠsaÄŁlÄ±k":1435,"$$lerden":1436,"Ġharek":1437,"$$ektÃ¶r":1438,"$$lÃ¼k":1439,"Ġsos":1440,"un":1441,"Ġuzun":1442,"$$ort":1443,"ĠbÃ¶yle":1444,"Ġolduk":1445,"Ġdestek":1446,"Ġkas":1447,"Ġun":1448,"Ġpay":1449,"$$acaÄŁ":1450,"Ġbunun":1451,"$$usunda":1452,"Ġren":1453,"$$sam":1454,"ĠbÄ±rak":1455,"ĠbÃ¼tÃ¼n":1456,"ĠkaÃ§":1457,"ĠoluÅŁtur":1458,"$$cÃ¼":1459,"$$okt":1460,"ĠkÄ±r":1461,"$$atÄ±":1462,"Ġdikkat":1463,"$$adÄ±":1464,"Ġpol":1465,"Ġtam":1466,"ĠhakkÄ±nda":1467,"ĠkÃ¼":1468,"Ã¶":1469,"ĠâĢĺ":1470,"$$acÄ±":1471,"$$lanan":1472,"$$unuz":1473,"Ġhast":1474,"ĠÃ¼zerine":1475,"$$ebil":1476,"Ġkurum":1477,"$$cek":1478,"ĠkÄ±z":1479,"Ġbay":1480,"Ġ9":1481,"Ġmev":1482,"Ġmer":1483,"ĠÃ¼ret":1484,"ĠteÅŁ":1485,"ĠgerÃ§ekleÅŁtir":1486,"Ġik":1487,"ĠÃ¼zere":1488,"$$ing":1489,"$$oÄŁlu":1490,"Ġetm":1491,"ĠÃ§Ã¶z":1492,"ĠhÄ±z":1493,"Ġbiri":1494,"Ġbar":1495,"$$lerinden":1496,"Ġhep":1497,"$$lerle":1498,"Ġul":1499,"Ġsorun":1500,"$$lantÄ±":1501,"$$Ã¼mÃ¼z":1502,"Ġbile":1503,"Ġplan":1504,"$$Ã¼yor":1505,"Ġ0":1506,"$$aba":1507,"Ġoyn":1508,"$$duÄŁu":1509,"$$sal":1510,"Ġ'":1511,"$$anda":1512,"$$elerin":1513,"ĠÃ¼Ã§":1514,"Ġbilgi":1515,"$$larÄ±ndan":1516,"ĠÃ¶ÄŁrenc":1517,"Ġyas":1518,"ĠyÄ±lÄ±nda":1519,"Ġyor":1520,"ĠgenÃ§":1521,"$$ri":1522,"$$ob":1523,"$$leme":1524,"Ġkolay":1525,"Ġey":1526,"ĠÃ¼zerinde":1527,"Ġtah":1528,"$$gel":1529,"ye":1530,"Ġbenim":1531,"Ġcumhur":1532,"Ġeder":1533,"$$lenen":1534,"Ġyem":1535,"ĠÅŁirk":1536,"Ġtal":1537,"ĠgeÃ§ir":1538,"$$umuz":1539,"ĠgÃ¶rÃ¼ÅŁ":1540,"$$ÄŁim":1541,"$$aÅŁtÄ±r":1542,"Ġanlam":1543,"ĠbaÅŁka":1544,"$$lerimiz":1545,"Ġsonr":1546,"Ġseb":1547,"ĠbugÃ¼n":1548,"Ġedil":1549,"$$edik":1550,"$$Ã§Ä±":1551,"Ġkes":1552,"Ġtamam":1553,"Ġsosyal":1554,"$$lum":1555,"$$gan":1556,"Ġmi":1557,"$$bar":1558,"ĠyaÅŁam":1559,"$$ver":1560,"$$aj":1561,"Ġbakan":1562,"ĠkÃ¼l":1563,"Ġ15":1564,"$$elim":1565,"Ġihtiy":1566,"Ġhareket":1567,"$$ilmiÅŁ":1568,"$$onom":1569,"Ġziy":1570,"$$urt":1571,"$$efon":1572,"$$rar":1573,"ĠgeliÅŁ":1574,"$$mayÄ±":1575,"$$Ã§i":1576,"ĠkÃ¼Ã§":1577,"$$baÅŁ":1578,"ĠÃ§eÅŁ":1579,"$$tÄ±m":1580,"Ġail":1581,"Ġhes":1582,"Ġmillet":1583,"$$Ã¼nkÃ¼":1584,"Ġspor":1585,"$$cret":1586,"Ġallah":1587,"$$kÄ±":1588,"$$Ä±lÄ±r":1589,"Ġard":1590,"ĠaraÅŁtÄ±r":1591,"$$sik":1592,"$$Ä±lmasÄ±":1593,"Ġber":1594,"Ġkabul":1595,"$$Ä±ldÄ±":1596,"Ġortaya":1597,"$$manÄ±n":1598,"Ġolay":1599,"ĠhÃ¼k":1600,"$$rak":1601,"Ġtelefon":1602,"Ġgeldi":1603,"$$gÄ±":1604,"Ġah":1605,"Ġkav":1606,"ĠmÃ¼z":1607,"ĠsonuÃ§":1608,"$$inizi":1609,"Ġ#":1610,"Ġdolay":1611,"ĠyaklaÅŁ":1612,"Ġdiy":1613,"$$fa":1614,"$$Ä±rÄ±m":1615,"ĠbaÅŁar":1616,"ĠaraÃ§":1617,"Ġkir":1618,"ĠsaÄŁla":1619,"ĠyakÄ±n":1620,"Ġkoy":1621,"$$siyon":1622,"ĠÃ¼cret":1623,"Ġkalit":1624,"ĠkiÅŁi":1625,"$$van":1626,"$$sin":1627,"Ġulus":1628,"Ġtat":1629,"$$ekli":1630,"ĠayrÄ±ca":1631,"Ġ200":1632,"$$oÄŁraf":1633,"$$uru":1634,"Ġper":1635,"$$tif":1636,"$$dim":1637,"$$rik":1638,"Ġediyor":1639,"$$tÄ±ÄŁ":1640,"ya":1641,"ĠyÃ¶netim":1642,"Ġuygula":1643,"ĠÃ§Ã¼nkÃ¼":1644,"$$ge":1645,"$$yacak":1646,"Ġkol":1647,"$$Ä±lÄ±m":1648,"Ġserv":1649,"Ġifade":1650,"$$may":1651,"Ġ%":1652,"Ġmey":1653,"ĠpaylaÅŁ":1654,"$$kara":1655,"$$tem":1656,"ĠartÄ±k":1657,"Ġrahat":1658,"$$Ã§ok":1659,"$$indeki":1660,"$$be":1661,"$$suz":1662,"$$Ä±lacak":1663,"Ġyen":1664,"Ġterc":1665,"ĠgÃ¼nÃ¼":1666,"ĠmÃ¼ÅŁ":1667,"ĠdeÄŁerlendir":1668,"$$meler":1669,"$$per":1670,"$$tal":1671,"ĠardÄ±ndan":1672,"Ġkontr":1673,"ĠgÃ¶nder":1674,"Ġbunu":1675,"Ġedilen":1676,"ĠkÃ¼ltÃ¼r":1677,"Ġyine":1678,"$$sanÄ±z":1679,"$$ban":1680,"ĠkÃ¼Ã§Ã¼k":1681,"Ġsab":1682,"Ġbilin":1683,"Ġsar":1684,"Ġolabilir":1685,"Ġmas":1686,"$$mez":1687,"$$bol":1688,"Ġses":1689,"$$miÅŁtir":1690,"ĠÃ¶zellikle":1691,"Ġetmek":1692,"$$ber":1693,"$$dav":1694,"Ġsanat":1695,"Ġkitap":1696,"Ġders":1697,"ĠÅŁim":1698,"ĠÅŁirket":1699,"$$eg":1700,"Ġsak":1701,"Ġmodel":1702,"$$Ä±ÅŁÄ±":1703,"Ġkapsam":1704,"Ġyapan":1705,"ĠyÃ¼zde":1706,"Ġyani":1707,"$$isini":1708,"ĠÃ§alÄ±ÅŁmalar":1709,"$$dum":1710,"ĠtanÄ±":1711,"$$ov":1712,"Ġmem":1713,"$$gin":1714,"Ġorta":1715,"$$res":1716,"Ġ12":1717,"Ġabd":1718,"ĠÃ§eÅŁit":1719,"ĠbirÃ§ok":1720,"Ġdiz":1721,"Ġyerine":1722,"Ġst":1723,"$$ale":1724,"$$mem":1725,"ĠkÄ±sa":1726,"$$istan":1727,"Ġvat":1728,"Ġmark":1729,"Ġlis":1730,"$$za":1731,"Ġbor":1732,"Ġtav":1733,"ĠbaÅŁv":1734,"Ġokul":1735,"$$nek":1736,"$$asÄ±na":1737,"Ġekonom":1738,"Ġcev":1739,"ĠiÃ§erisinde":1740,"Ġkil":1741,"$$tÄ±ÄŁÄ±":1742,"Ġkontrol":1743,"$$madan":1744,"ĠfÄ±r":1745,"nde":1746,"$$isine":1747,"$$duÄŁ":1748,"ĠÃ¶de":1749,"ĠuÃ§":1750,"ĠsavaÅŁ":1751,"Ġteknoloj":1752,"Ġfot":1753,"Ġpaz":1754,"ĠÃ¶ÄŁret":1755,"Ġziyaret":1756,"bir":1757,"$$edef":1758,"Ġdir":1759,"Ġkaynak":1760,"Ġkonusunda":1761,"ĠtaÅŁÄ±":1762,"$$end":1763,"com":1764,"Ġyarat":1765,"en":1766,"Ġmilyon":1767,"$$ali":1768,"ĠgeliÅŁtir":1769,"Ġ/":1770,"ĠyaÄŁ":1771,"Ġherk":1772,"$$Ä±nÄ±r":1773,"Ġgelir":1774,"Ġtemiz":1775,"Ġprof":1776,"ĠÅŁeh":1777,"Ġonun":1778,"ĠsektÃ¶r":1779,"Ġmar":1780,"$$ternet":1781,"Ġtl":1782,"Ġ|":1783,"$$arasÄ±":1784,"ĠseÃ§im":1785,"$$sil":1786,"Ġdair":1787,"Ġtoplum":1788,"Ġeski":1789,"$$lÄ±yor":1790,"$$lo":1791,"Ġhemen":1792,"ĠvardÄ±r":1793,"Ġmerkezi":1794,"Ġle":1795,"Ġanla":1796,"$$amaz":1797,"ĠgeÃ§en":1798,"$$oÅŁ":1799,"$$Ä±da":1800,"Ġbizim":1801,"$$cut":1802,"Ġhis":1803,"Ġadam":1804,"Ġsey":1805,"$$Ã¼nÃ¼n":1806,"Ġkez":1807,"Ġtercih":1808,"Ġmadde":1809,"$$leyen":1810,"Ġhedef":1811,"Ġrenk":1812,"$$ele":1813,"$$uluk":1814,"Ġistedi":1815,"$$min":1816,"ĠbaÄŁlÄ±":1817,"$$ent":1818,"$$ilere":1819,"$$mam":1820,"Ġac":1821,"Ġdeniz":1822,"$$ekk":1823,".âĢĿ":1824,"$$landÄ±r":1825,"Ġch":1826,"Ġoda":1827,"Ġbelediye":1828,"$$rupa":1829,"Ġbelediy":1830,"Ġsize":1831,"ĠgÃ¶rÃ¼l":1832,"ĠyanÄ±":1833,"$$erj":1834,"yi":1835,"Ġsur":1836,"ĠmaÃ§":1837,"$$...":1838,"nun":1839,"$$kÃ¼n":1840,"Ġmed":1841,"Ġisim":1842,"ĠtakÄ±m":1843,"$$unca":1844,"ĠâĢĵ":1845,"Ġerkek":1846,"ĠaÃ§Ä±kla":1847,"Ġbank":1848,"$$ant":1849,"ÂĴ":1850,"$$oy":1851,"Ġolsun":1852,"ĠhÃ¼kÃ¼m":1853,"Ġyal":1854,"ĠmÃ¼c":1855,"ĠÃ§aÄŁ":1856,"Ġindir":1857,"$$det":1858,"$$Ä±ntÄ±":1859,"$$Ä±lmÄ±ÅŁ":1860,"$$uh":1861,"),":1862,"Ġpek":1863,"$$oÄŁun":1864,"$$mir":1865,"ĠmÄ±":1866,"ĠÃ¼niversitesi":1867,"Ġburada":1868,"Ġpr":1869,"$$las":1870,"$$doÄŁ":1871,"ĠyaptÄ±ÄŁÄ±":1872,"$$uyu":1873,"Ġtic":1874,"Ġbenz":1875,"Ġiti":1876,"ĠÂ":1877,"ÂŃ":1878,"Ġait":1879,"ĠhiÃ§bir":1880,"$$ince":1881,"Ġzar":1882,"Ġkah":1883,"Ġetkin":1884,"Ġolup":1885,"ĠaltÄ±nda":1886,"Ġ2018":1887,"Ġelekt":1888,"'t":1889,"Ġankara":1890,"Ġpara":1891,"ĠÃ§alÄ±ÅŁma":1892,"Ġboz":1893,"ĠyapÄ±":1894,"Ġvur":1895,"Ġanlat":1896,"Ġkut":1897,"$$ebilirsiniz":1898,"$$Ä±nÄ±f":1899,"Ġteknik":1900,"$$sunuz":1901,"ĠyaÅŁan":1902,"ĠdeÄŁiÅŁik":1903,"Ġgazet":1904,"ĠmÃ¼m":1905,"ĠsÄ±nÄ±r":1906,"ĠsÃ¶yledi":1907,"$$eceÄŁi":1908,"Ġadet":1909,"ĠÃ§alÄ±ÅŁan":1910,"Ġgeri":1911,"$$lek":1912,"ĠdÃ¶nÃ¼ÅŁ":1913,"Ġtedav":1914,"Ġsoru":1915,"Ġsiyas":1916,"Ġdr":1917,"ĠkÃ¶y":1918,"Ġbilim":1919,"Ġyorum":1920,"$$adan":1921,"Ġincel":1922,"$$ari":1923,"$$aliyet":1924,"$$abÄ±":1925,"$$ch":1926,"ĠmÃ¼cad":1927,"Ġvak":1928,"Ġid":1929,"Ġdak":1930,"$$umlu":1931,"Ġsil":1932,"$$erli":1933,"ĠdÃ¶":1934,"$$laÅŁtÄ±r":1935,"ĠoldukÃ§a":1936,"Ġsek":1937,"Ġkurulu":1938,"ĠfotoÄŁraf":1939,"ĠsÃ¼re":1940,"$$Ã¼sÃ¼":1941,"Ġbiraz":1942,"Ġ[":1943,"Ġavrupa":1944,"$$undan":1945,"Ġtemel":1946,"ĠÅŁehir":1947,"Ġzamanda":1948,"Ġyapmak":1949,"ĠanlaÅŁ":1950,"ĠaÄŁÄ±r":1951,"ĠÃ¶y":1952,"Ġfakat":1953,"Ġhafta":1954,"Ġengel":1955,"ĠolmuÅŁ":1956,"$$ayet":1957,"tÃ¼rk":1958,"Ġbildir":1959,"Ġask":1960,"Ġgereken":1961,"Ġ11":1962,"Ġmen":1963,"ĠtÃ¼k":1964,"Ġ18":1965,"ĠÃ¶zellik":1966,"ĠeÄŁer":1967,"$$asÄ±nÄ±":1968,"ĠilÃ§":1969,"Ġgez":1970,"Ġverdi":1971,"ĠaÅŁaÄŁÄ±":1972,"$$tin":1973,"Ġveren":1974,"$$edim":1975,"Ġmik":1976,"$$lemek":1977,"Ġgrup":1978,"$$manÄ±z":1979,"Ġfaaliyet":1980,"$$isinin":1981,"lk":1982,"$$lim":1983,"$$tiv":1984,"$$Ä±yorum":1985,"ĠkoÅŁ":1986,"Ġcih":1987,"$$eÄŁi":1988,"Ġpart":1989,"$$lÃ¼ÄŁÃ¼":1990,"ĠÃ¶lÃ§":1991,"$$dak":1992,"$$ag":1993,"ĠÃ¼zerinden":1994,"$$iyi":1995,"Ġtekrar":1996,"Ġbana":1997,"$$ecektir":1998,"ĠadÄ±":1999,"$$tiÄŁi":2000,"ĠyatÄ±rÄ±m":2001,"$$andaÅŁ":2002,"$$pan":2003,"ĠÃ§Ã¶zÃ¼m":2004,"ĠmÃ¼mkÃ¼n":2005,"$$alama":2006,"Ġhastan":2007,"ĠdÃ¼ny":2008,"ne":2009,"nda":2010,"Ġrek":2011,"ĠÃ§ar":2012,"Ġnokt":2013,"$$for":2014,"$$duk":2015,"$$gÄ±n":2016,"ngil":2017,"Ġnum":2018,"Ġuzak":2019,"ĠÃ¶rg":2020,"ĠÃ§evr":2021,"Ġtakip":2022,"Ġilet":2023,"Ġcam":2024,"Ġbirbir":2025,"$$isyon":2026,"ĠgiriÅŁ":2027,"$$alt":2028,"ĠsÄ±nÄ±f":2029,"$$su":2030,"Ġbelg":2031,"Ġsin":2032,"ĠyÃ¶ntem":2033,"ĠdeÄŁiÅŁtir":2034,"Ġkesin":2035,"ĠboÅŁ":2036,"Ġsayf":2037,"Ġner":2038,"$$tim":2039,"Ġpo":2040,"Ġos":2041,"$$dÄ±n":2042,"Ġip":2043,"Ġedilm":2044,"ĠÅŁimdi":2045,"ĠvatandaÅŁ":2046,"Ġ.":2047,"Ġhava":2048,"Ġparti":2049,"ĠsatÄ±ÅŁ":2050,"Ġberaber":2051,"Ġonu":2052,"Ġpazar":2053,"$$inci":2054,"$$masÄ±nÄ±n":2055,"Ġenerj":2056,"$$hangi":2057,"Ġfay":2058,"Ġinan":2059,"$$ize":2060,"Ġortak":2061,"ĠtoplantÄ±":2062,"$$mÃ¼ÅŁ":2063,"Ġorgan":2064,"Ġitibar":2065,"$$imizin":2066,"ĠbakÄ±m":2067,"Ġsok":2068,"Ġaf":2069,"Ġoluyor":2070,"Ġotur":2071,"ĠkaldÄ±r":2072,"$$bak":2073,"19":2074,"Ġelde":2075,"Ġvide":2076,"$$dana":2077,"$$pr":2078,"$$fer":2079,"$$alarÄ±n":2080,"$$bu":2081,"$$Ä±nav":2082,"$$bi":2083,"Ġpat":2084,"$$teÅŁ":2085,"ĠyÃ¶nelik":2086,"ĠalÄ±ÅŁ":2087,"Ġyemek":2088,"Ġikin":2089,"Ġgal":2090,"ĠiliÅŁk":2091,"$$asÄ±nÄ±n":2092,"Ġtarihi":2093,"Ġmec":2094,"Ġuygulama":2095,"ĠsaÃ§":2096,"Ġfor":2097,"ĠgÃ¼l":2098,"Ġmahal":2099,"Ġherhangi":2100,"$$din":2101,"ĠgeniÅŁ":2102,"Ġkem":2103,"$$doÄŁan":2104,"$$umu":2105,"$$unuyor":2106,"Ġmalz":2107,"$$he":2108,"Ġmek":2109,"ĠÃ§iz":2110,"Ġham":2111,"Ġdet":2112,"$$yo":2113,"Ġuygulan":2114,"Ġistem":2115,"$$Ä±yoruz":2116,"$$erken":2117,"Ġnedeniyle":2118,"ĠyÃ¼ksel":2119,"$$ekkÃ¼r":2120,"Ġkonusu":2121,"Ġbab":2122,"$$sÄ±nÄ±z":2123,"Ġdok":2124,"Ġsez":2125,"Ġro":2126,"Ġsel":2127,"$$taj":2128,"Ġbilgiler":2129,"$$larÄ±yla":2130,"$$ekten":2131,"$$malÄ±dÄ±r":2132,"$$vet":2133,"ĠÅŁah":2134,".\"":2135,"ĠkÃ¼r":2136,"$$elere":2137,"Ġdol":2138,"Ġtabi":2139,"Ġoran":2140,"ĠbeÅŁ":2141,"ĠsÄ±nav":2142,"Ġayak":2143,"$$ÄŁinde":2144,"ĠÃ¶ÄŁretmen":2145,"Ġaday":2146,"Ġbi":2147,"ĠbaÅŁladÄ±":2148,"Ġweb":2149,"$$onu":2150,"$$deÅŁ":2151,"Ġcin":2152,"Ġinternet":2153,"$$lararasÄ±":2154,"Ġmez":2155,"Ġalmak":2156,"$$eyin":2157,"Ġsizin":2158,"Ġbeb":2159,"Ġyeniden":2160,"Ġdes":2161,"ĠamaÃ§":2162,"Ġir":2163,"Ġof":2164,"Ġtoplam":2165,"Ġdan":2166,"ĠkullanÄ±cÄ±":2167,"Ġhesap":2168,"$$ba":2169,"ĠparÃ§":2170,"$$lÃ¼ÄŁ":2171,"ĠhÄ±zlÄ±":2172,"$$lardÄ±r":2173,"$$iyeti":2174,"$$medi":2175,"$$elerini":2176,"Ġgerekli":2177,"$$esinden":2178,"$$yanÄ±n":2179,"$$elerde":2180,"Ġnak":2181,"Ġortam":2182,"Ġhey":2183,"$$lÃ¼l":2184,"Ġedildi":2185,"$$Ã¼b":2186,"ĠgÃ¼venlik":2187,"Ġgerekir":2188,"$$rÄ±":2189,"Ġpu":2190,"Ġolmayan":2191,"Ġekip":2192,"ĠkuruluÅŁ":2193,"$$alet":2194,"$$muz":2195,"Ġ14":2196,"ĠyardÄ±mcÄ±":2197,"$$Ã¼nden":2198,"Ġmilli":2199,"den":2200,"$$kanÄ±":2201,"Ġfin":2202,"ĠkayÄ±t":2203,"ĠÃ§Ä±kan":2204,"Ġ30":2205,"$$meden":2206,"ĠamacÄ±":2207,"ĠsuÃ§":2208,"$$eyim":2209,"$$Ã¾":2210,"$$na":2211,"Ġcihaz":2212,"Ġkaf":2213,"ĠÃ¼retim":2214,"Ġaras":2215,"Ġ16":2216,"$$can":2217,"ĠtasarÄ±m":2218,"$$elen":2219,"ĠdeÄŁildir":2220,"ĠyazÄ±":2221,"Ġana":2222,"ĠkarÄ±ÅŁ":2223,"Ġkork":2224,"$$leriyle":2225,"$$hal":2226,"ĠÅŁekl":2227,"ĠraÄŁ":2228,"ĠiliÅŁkin":2229,"Ġunut":2230,"Ġ13":2231,"00":2232,"ĠteÅŁekkÃ¼r":2233,"$$ime":2234,"Ġgec":2235,"$$meli":2236,"$$caÄŁÄ±":2237,"ĠÃ¶ner":2238,"Ġyetk":2239,"dan":2240,"ĠÃ¶zg":2241,"$$ukuk":2242,"Ġbal":2243,"Ġdar":2244,"Ġkamu":2245,"$$landÄ±":2246,"ĠÃ¶rgÃ¼t":2247,"$$ift":2248,"Ġyurt":2249,"Ġbayan":2250,"$$inize":2251,"ĠaÃ§Ä±klama":2252,"ĠtÄ±k":2253,"$$izm":2254,"$$eÄŁin":2255,"ĠdolayÄ±":2256,"Ġdayan":2257,"$$dÃ¼ÄŁ":2258,"$$itik":2259,"Ġoku":2260,"Ġuzman":2261,"$$eci":2262,"Ġ25":2263,"ĠihtiyaÃ§":2264,"Ġrap":2265,"$$isay":2266,"Ġmeh":2267,"ben":2268,"$$sta":2269,"$$ladÄ±":2270,"ĠÃ§eÅŁitli":2271,"$$sat":2272,"$$lÄ±nda":2273,"Ġdu":2274,"Ġsig":2275,"ĠsaldÄ±r":2276,"ĠdoÄŁal":2277,"ĠsÄ±cak":2278,"$$meyi":2279,"ĠÅŁart":2280,"$$ilerine":2281,"$$imize":2282,"ĠraÄŁmen":2283,"ĠgÃ¼nde":2284,"$$Ã¼c":2285,"na":2286,"$$br":2287,"Ġpers":2288,"Ġotel":2289,"ĠkapsamÄ±nda":2290,"ĠsÃ¼rdÃ¼r":2291,"ĠdÄ±ÅŁÄ±nda":2292,"Ġ...":2293,"Ġmevcut":2294,"$$enek":2295,"ĠyaklaÅŁÄ±k":2296,"ĠyarÄ±ÅŁ":2297,"Ġmay":2298,"Ġann":2299,"Ġbeni":2300,"Ġikinci":2301,"$$Ä±lÄ±yor":2302,"$$sÄ±n":2303,"Ġyarar":2304,"$$arken":2305,"ĠgerÃ§ekleÅŁ":2306,"$$masÄ±nda":2307,"$$aten":2308,"$$Ä±sÄ±nda":2309,"$$matik":2310,"ĠsÄ±ra":2311,"ĠÃ¶rnek":2312,"Ġtep":2313,"âĢľ":2314,"Ġhiss":2315,"$$efer":2316,"Ġdetay":2317,"$$ron":2318,"ĠmaÄŁ":2319,"Ġedin":2320,"Ġsistemi":2321,"Ġbize":2322,"Ġhukuk":2323,"Ġef":2324,"ĠyoÄŁun":2325,"Ġosman":2326,"Ġfik":2327,"$$Ä±sÄ±ndan":2328,"Ġmahk":2329,"$$larÄ±nÄ±z":2330,"$$esiyle":2331,"$$ocu":2332,"$$ÅŁam":2333,"10":2334,"Ġtemsil":2335,"$$eceÄŁ":2336,"ĠuluslararasÄ±":2337,"$$lis":2338,"Ġisteyen":2339,"Ġbuna":2340,"$$alÄ±m":2341,"Ġteh":2342,"ĠkÄ±sm":2343,"Ġservis":2344,"Ġ17":2345,"ĠinÅŁ":2346,"Ġdevr":2347,"$$mat":2348,"Ġderece":2349,"Ġmot":2350,"Ġfut":2351,"Ġgiy":2352,"Ġcevap":2353,"$$imde":2354,"ĠcanlÄ±":2355,"Ã¼n":2356,"$$cÄ±sÄ±":2357,"Ġgru":2358,"$$ola":2359,"Ġkalk":2360,"Ġbilgisay":2361,"Ġsayesinde":2362,"Ġiddi":2363,"$$Ã¼nÃ¼yor":2364,"$$Ä±nca":2365,"Ġbelediyesi":2366,"$$pit":2367,"$$uÅŁtur":2368,"$$ilerini":2369,"Ġ2017":2370,"$$oÄŁu":2371,"Ġ100":2372,"Ġhalinde":2373,"ĠerdoÄŁan":2374,"$$Ã¼lt":2375,"ĠsÃ¼rekli":2376,"$$okr":2377,"Ġrapor":2378,"Ġnit":2379,"$$anlar":2380,"$$tep":2381,"Ġboyunca":2382,"$$nÄ±z":2383,"Ġdon":2384,"$$imizi":2385,"ĠsayÄ±lÄ±":2386,"Ġmakin":2387,"Ġalman":2388,"Ġticaret":2389,"Ġhatta":2390,"ĠÅŁub":2391,"ĠkardeÅŁ":2392,"Ġzarar":2393,"ar":2394,"ĠyapÄ±lacak":2395,"$$ye":2396,"zmir":2397,"ĠÃ¶d":2398,"Ġsahibi":2399,"ĠmÃ¼s":2400,"Ġnet":2401,"$$ere":2402,"Ġsem":2403,"ĠterÃ¶r":2404,"$$Ã¢n":2405,"Ġolsa":2406,"ĠmÃ¼ÅŁter":2407,"nsan":2408,"$$Ä±rken":2409,"$$ÅŁehir":2410,"Ġhik":2411,"ĠkarÅŁÄ±laÅŁ":2412,"ĠyÄ±k":2413,"Ġyav":2414,"al":2415,"Ġdal":2416,"Ġsam":2417,"Ġherkes":2418,"ĠuÄŁr":2419,"Ġyolu":2420,"$$yum":2421,"$$lilik":2422,"$$lanmÄ±ÅŁ":2423,"$$Ã¶rt":2424,"$$mayan":2425,"$$Ã»":2426,"$$Ã¼f":2427,"$$âĢĻ":2428,"$$meyen":2429,"$$luluk":2430,"$$od":2431,"$$lamak":2432,"Ġgider":2433,"ĠtÃ¼rlÃ¼":2434,"$$isk":2435,"Ġ24":2436,"Ġhangi":2437,"Ġperson":2438,"ĠadÄ±m":2439,"Ġtalep":2440,"Ġstr":2441,"Ġsanay":2442,"$$uvar":2443,"Ġverilen":2444,"ĠvÃ¼":2445,"Ġyaban":2446,"ĠkullanÄ±l":2447,"Ġhayvan":2448,"ĠbiÃ§":2449,"Ġali":2450,"$$eceÄŁini":2451,"Ġoper":2452,"$$ve":2453,"Ġap":2454,"$$amp":2455,"$$taÅŁ":2456,"Ġx":2457,"$$Ä±nÄ±zÄ±":2458,"$$ast":2459,"Ġgece":2460,"Ġrak":2461,"$$Ä±rÄ±":2462,"$$mesini":2463,"Ġpiyas":2464,"ĠbaÅŁarÄ±":2465,"ĠiÅŁlet":2466,"Ġsoh":2467,"Ġdurumda":2468,"Ġgar":2469,"Ġrus":2470,"Ġederek":2471,"Ġgelecek":2472,"Ġtarihinde":2473,"Ġtespit":2474,"ĠyanÄ±nda":2475,"Ġister":2476,").":2477,"Ġsebep":2478,"ĠaraÅŁtÄ±rma":2479,"$$Ã¼ÄŁ":2480,"ĠyÃ¼rÃ¼t":2481,"Ġdahil":2482,"$$alarda":2483,"$$afa":2484,"Ġzaten":2485,"Ġfutbol":2486,"$$adolu":2487,"$$vek":2488,"Ġoyuncu":2489,"ĠsÃ¶zleÅŁ":2490,"$$ï¿½":2491,"Ġgi":2492,"ĠaldÄ±":2493,"Ġresim":2494,"Ġre":2495,"Ġfil":2496,"$$luÄŁ":2497,"Ġum":2498,"Ġbes":2499,"$$izi":2500,"ĠcumhurbaÅŁ":2501,"Ġruh":2502,"ĠkullanÄ±m":2503,"$$tiÄŁini":2504,"ĠÅŁark":2505,"$$of":2506,"$$elerinin":2507,"ĠaslÄ±nda":2508,"ĠtÃ¼ket":2509,"Ġedecek":2510,"ĠyalnÄ±z":2511,"Ġcen":2512,"Ġbilgisayar":2513,"Ġona":2514,"Ġhale":2515,"ĠolacaktÄ±r":2516,"ĠÃ¶yle":2517,"Ġistiyor":2518,"Ġkuru":2519,"ĠaydÄ±n":2520,"Ġamer":2521,"ĠÃ§ift":2522,"Ġmesaj":2523,"Ġbat":2524,"$$oktor":2525,"Ġanda":2526,"Ġvideo":2527,"$$evi":2528,"$$bo":2529,"ĠhastalÄ±k":2530,"$$lendi":2531,"Ġmehmet":2532,"$$sak":2533,"ĠhatÄ±r":2534,"$$asyonu":2535,"$$esel":2536,"ĠÃ§ocu":2537,"Ġdi":2538,"$$mÄ±ÅŁtÄ±":2539,"$$etler":2540,"$$iliÄŁi":2541,"Ġdep":2542,"Ġtesis":2543,"Ġsohbet":2544,"$$Ä±yla":2545,"ĠoÄŁ":2546,"Ġlist":2547,"Ġmalzem":2548,"$$mel":2549,"Ġdemek":2550,"Ġdos":2551,"ĠdoÄŁr":2552,"ĠbaÅŁvuru":2553,"ĠkasÄ±m":2554,"ĠÅŁÃ¶yle":2555,"Ġkurt":2556,"Ġku":2557,"$$eceÄŁiniz":2558,"Ġyum":2559,"Ġkarak":2560,"Ġsitesi":2561,"Ġdemir":2562,"$$liyor":2563,"Ġstan":2564,"ĠtanÄ±m":2565,"ay":2566,"$$anlÄ±":2567,"ĠgeÃ§miÅŁ":2568,"ĠaÅŁk":2569,"ĠettiÄŁi":2570,"$$teri":2571,"$$eÅŁtir":2572,"ĠmÃ¼h":2573,"Ġkalan":2574,"ĠÃ¶dÃ¼l":2575,"ĠkatÄ±lÄ±m":2576,"ĠÃ¼lkemiz":2577,"Ġsol":2578,"$$mer":2579,"ngiliz":2580,"Ġdavran":2581,"Ġbeyaz":2582,"Ġkey":2583,"Ġbeklen":2584,"Ġkilo":2585,"Ġgeliyor":2586,"$$lanmasÄ±":2587,"$$anÄ±yor":2588,"ĠmÃ¼zik":2589,"Ġpolis":2590,"$$ilerinin":2591,"ĠgÃ¼ncel":2592,"Ġkons":2593,"Ġgiz":2594,"$$mesine":2595,"ĠadÄ±na":2596,"ĠyanlÄ±":2597,"Ġsp":2598,"Ġtemmuz":2599,"Ġmis":2600,"Ġbelli":2601,"tÃ¼rkiye":2602,"Ġkent":2603,"Ġfen":2604,"Ġtip":2605,"Ġfat":2606,"Ġiler":2607,"$$makta":2608,"ĠbaÅŁarÄ±lÄ±":2609,"Ġtarif":2610,"$$yas":2611,"Ġpark":2612,"Ġdoktor":2613,"ĠÃ¶lÃ¼m":2614,"Ġnedenle":2615,"ĠkuÅŁ":2616,"ĠÅŁeklinde":2617,"ĠaÃ§Ä±sÄ±ndan":2618,"Ġnis":2619,"Ġlir":2620,"Ġmobil":2621,"Ġkelim":2622,"$$ow":2623,"ĠkullanÄ±lan":2624,"$$caÄŁÄ±nÄ±":2625,"Ġkonuda":2626,"Ġpey":2627,"Ġit":2628,"$$alarÄ±nda":2629,"Ġtart":2630,"$$lÃ¼m":2631,"Ġonlar":2632,"ĠkÃ¶tÃ¼":2633,"ĠyaptÄ±ÄŁ":2634,"Ġseviy":2635,"Ġmutlu":2636,"Ġcid":2637,"Ġpan":2638,"Ġanadolu":2639,"ĠyaptÄ±r":2640,"ĠyabancÄ±":2641,"Ġgerekiyor":2642,"ĠsoÄŁ":2643,"$$dÄ±ÄŁÄ±mÄ±z":2644,"ĠyÄ±ldÄ±r":2645,"Ġsezon":2646,"$$iran":2647,"Ġmilletvek":2648,"ĠiletiÅŁim":2649,"Ġetkil":2650,"ĠmÃ¼dÃ¼rlÃ¼ÄŁÃ¼":2651,"ĠyÄ±lÄ±":2652,"$$stafa":2653,"Ġekonomik":2654,"Ġkart":2655,"ĠdÃ¼zenlenen":2656,"$$ormal":2657,"ĠyÄ±ld":2658,"$$menin":2659,"ĠeylÃ¼l":2660,"$$osu":2661,"ĠkiÅŁinin":2662,"$$elerine":2663,"Ġkapat":2664,"$$miyor":2665,"Ġeser":2666,"Ġcez":2667,"Ġsonunda":2668,"ĠartÄ±r":2669,"$$lin":2670,"$$abilecek":2671,"ĠbasÄ±n":2672,"ĠdaÄŁ":2673,"$$erÃ§":2674,"$$tÃ¶r":2675,"Ġsonucu":2676,"$$rah":2677,"$$meleri":2678,"Ġekran":2679,"Ġsavun":2680,"Ġ2016":2681,"$$bah":2682,"$$ilerek":2683,"$$yar":2684,"$$iir":2685,"ĠkonuÅŁtu":2686,"$$atif":2687,"Ġpak":2688,"Ġdiyor":2689,"Ġsilah":2690,"$$kaÃ§":2691,"Ġse":2692,"$$Ã¼len":2693,"$$luÄŁu":2694,"$$inc":2695,"$$emi":2696,"ĠyÄ±llÄ±k":2697,"ĠsÄ±rasÄ±nda":2698,"ĠgeÃ§ti":2699,"Ġmahall":2700,"ĠgÃ¼nlÃ¼k":2701,"Ġmin":2702,"$$ana":2703,"Ġbl":2704,"Ġveril":2705,"Ġbelki":2706,"Ġyazar":2707,"ĠgÃ¼neÅŁ":2708,"$$lif":2709,"$$layarak":2710,"Ġdek":2711,"Ġolmaz":2712,"ĠdÃ¼nyanÄ±n":2713,"ĠÃ§Ä±ktÄ±":2714,"Ġsiv":2715,"Ġenerji":2716,"ĠhoÅŁ":2717,"Ġzen":2718,"Ġmotor":2719,"$$ÄŁin":2720,"Ġcil":2721,"Ġpolitik":2722,"Ġekim":2723,"$$mekte":2724,"slam":2725,"ĠvardÄ±":2726,"$$bilirsiniz":2727,"te":2728,"$$lÃ¢":2729,"ĠaracÄ±":2730,"$$lÄ±kla":2731,"ĠbirkaÃ§":2732,"Ġsizi":2733,"$$Ä±sÄ±yla":2734,"$$etin":2735,"Ġtamamen":2736,"$$nun":2737,"ĠakÄ±l":2738,"ĠgerÃ§ekten":2739,"$$mamÄ±z":2740,"Ġsorum":2741,"ĠbakanlÄ±ÄŁÄ±":2742,"Ġdakika":2743,"Ġkaybet":2744,"$$amÄ±z":2745,"Ġasker":2746,"ĠsatÄ±n":2747,"ĠaralÄ±k":2748,"ĠtartÄ±ÅŁ":2749,"ĠgÃ¼Ã§lÃ¼":2750,"Ġtec":2751,"ĠdiÅŁ":2752,"ĠyanlÄ±ÅŁ":2753,"ĠsÃ¼reÃ§":2754,"ĠbaÄŁlantÄ±":2755,"Ġaktar":2756,"Ġdost":2757,"$$atÃ¼rk":2758,"Ġbayram":2759,"Ġanal":2760,"Ġmart":2761,"ĠyaptÄ±k":2762,"$$gun":2763,"Ġelektrik":2764,"ĠbulunduÄŁu":2765,"Ġinsanlar":2766,"$$omo":2767,"$$isel":2768,"$$ilmiÅŁtir":2769,"Ġolabil":2770,"$$siy":2771,"Ġocak":2772,".)":2773,"Ġfayd":2774,"$$amak":2775,"Ġzorunda":2776,"Ġzir":2777,"$$one":2778,"$$eÅŁil":2779,"Ġkredi":2780,"$$fak":2781,"Ġ21":2782,"li":2783,"ĠbaÅŁvur":2784,"$$elikle":2785,"ĠkatÄ±l":2786,"$$adde":2787,"$$ren":2788,"ĠakÅŁam":2789,"Ġno":2790,"$$Ä±ÅŁÄ±k":2791,"Ġizle":2792,"$$ga":2793,"Ġsabah":2794,"Ġmedya":2795,"Ġmustafa":2796,"ĠateÅŁ":2797,"$$rafik":2798,"$$oloji":2799,"$$elerinde":2800,"Ġkuv":2801,"$$ÄŁine":2802,"ĠgÃ¶k":2803,"Ġresmi":2804,"Ġitibaren":2805,"Ġmeydana":2806,"12":2807,"Ġmutlak":2808,"Ġesc":2809,"$$eder":2810,"$$acaÄŁÄ±":2811,"$$Ã¼st":2812,"Ġkanun":2813,"$$neÄŁi":2814,"Ġboyut":2815,"Ġoto":2816,"$$izyon":2817,"Ġsebeb":2818,"$$line":2819,"$$lerce":2820,"ĠyÃ¼zden":2821,"Ġbunlar":2822,"$$ka":2823,"$$atik":2824,"$$ate":2825,"ĠÄ±s":2826,"Ġkuz":2827,"$$rac":2828,"$$ukarÄ±":2829,"Ġhaft":2830,"ĠÃ¶zgÃ¼r":2831,"Ġkendini":2832,"Ġic":2833,"Ġceza":2834,"$$ite":2835,"Ġdurumu":2836,"ĠdÃ¶rt":2837,"$$Ä±nÄ±za":2838,"Ġele":2839,"Ġkanal":2840,"$$ati":2841,"$$Ã¼le":2842,"Ġ50":2843,"ĠmayÄ±s":2844,"ĠkatkÄ±":2845,"Ġyerde":2846,"$$dÄ±ÄŁÄ±nda":2847,"Ġlaz":2848,"Ġetkinlik":2849,"ĠmÃ¼cadele":2850,"Ġproje":2851,"ĠkapÄ±":2852,"ĠÃ¼cretsiz":2853,"ĠbaÄŁÄ±m":2854,"$$alara":2855,"Ġedilir":2856,"Ġkayb":2857,"Ġdemokr":2858,"Ġhaziran":2859,"ÅŁte":2860,"Ġpersonel":2861,"Ġnumar":2862,"ĠÃ¼lke":2863,"Ġdolar":2864,"$$Ä±mda":2865,"Ġbula":2866,"Ġtoprak":2867,"11":2868,"$$olojik":2869,"Ġhizmeti":2870,"ĠdÃ¼ÅŁÃ¼nÃ¼yor":2871,"Ġpuan":2872,"$$dÃ¼ÄŁÃ¼":2873,"ĠoluÅŁan":2874,"Ġkaliteli":2875,"Ġ199":2876,"Ġvarsa":2877,"Ġescort":2878,"$$lanÄ±r":2879,"$$altÄ±":2880,"Ġform":2881,"ĠamacÄ±yla":2882,"Ġus":2883,"Ġprob":2884,"Ġteslim":2885,"Ġbahis":2886,"$$uar":2887,"Ġcumhuriyet":2888,"ĠiÅŁaret":2889,"ĠsÃ¼t":2890,"$$dÄ±klarÄ±":2891,"Ġanlay":2892,"$$lÄ±ÄŁÄ±nÄ±":2893,"$$Ä±mÄ±za":2894,"Ġisten":2895,"$$lerdir":2896,"ĠmÃ¼dÃ¼rÃ¼":2897,"ĠbeÄŁ":2898,"$$Ä±labilir":2899,"$$ÄŁa":2900,"Ġnef":2901,"$$emez":2902,"ĠaldÄ±ÄŁÄ±":2903,"Ġsizlere":2904,"Ġbebek":2905,"$$str":2906,"Ġizin":2907,"Ġand":2908,"ĠdaÄŁÄ±":2909,"ĠsonrasÄ±":2910,"$$Ä±nÄ±zda":2911,"$$liÄŁini":2912,"Ġsanayi":2913,"200":2914,"$$Ã°":2915,"$$dÃ¼k":2916,"ĠarasÄ±ndaki":2917,"$$Ä±sÄ±nÄ±":2918,"Ġ22":2919,"$$Ã¼nÃ¼z":2920,"ĠbirliÄŁi":2921,"$$ni":2922,"Ġprofes":2923,"$$Ã½n":2924,"ĠeÄŁlen":2925,"ĠkiÅŁiler":2926,"Ġvaz":2927,"$$etik":2928,"$$gisi":2929,"Ġhaline":2930,"ĠdanÄ±ÅŁ":2931,"$$ind":2932,"$$lenmesi":2933,"ĠsayÄ±sÄ±":2934,"ĠaltÄ±n":2935,"Ġnok":2936,"ak":2937,"$$gam":2938,"$$manÄ±":2939,"ĠbulunmaktadÄ±r":2940,"ĠÅŁamp":2941,"Ġtest":2942,"ĠverdiÄŁi":2943,"Ġbundan":2944,"ĠdÃ¼ÅŁÃ¼k":2945,"$$adem":2946,"Ġesas":2947,"ĠalÄ±nan":2948,"ĠÃ¶ÄŁrenciler":2949,"Ġeksik":2950,"$$talya":2951,"$$forman":2952,"ĠdÃ¼zey":2953,"Ġyoktur":2954,"Ġnormal":2955,"ĠprogramÄ±":2956,"$$veriÅŁ":2957,"Ġaks":2958,"$$go":2959,"$$ene":2960,"ĠgÃ¼nÃ¼mÃ¼z":2961,"Ġolun":2962,"Ġtrans":2963,"Ġverir":2964,"$$mey":2965,"$$egor":2966,"ĠÃ¶nceki":2967,"$$mÄ±yor":2968,"$$Ã¼ncÃ¼":2969,"Ġnot":2970,"Ġayar":2971,"Ġkims":2972,"ĠfirmalarÄ±":2973,"ĠÃ¼nlÃ¼":2974,"ĠdeÄŁiÅŁiklik":2975,"ĠkoÅŁul":2976,"$$ildiÄŁi":2977,"Ġproblem":2978,"Ġend":2979,"$$cÄ±lÄ±k":2980,"ĠÃ¶ldÃ¼r":2981,"Ġtedavi":2982,"Ġmerak":2983,"$$vi":2984,"ĠfakÃ¼lt":2985,"Ġaile":2986,"ĠmÃ¼slÃ¼m":2987,"Ġilan":2988,"Ġ2015":2989,"Ġyapar":2990,"Ġteklif":2991,"$$lulu":2992,"$$mal":2993,"Ġciddi":2994,"$$alarÄ±nÄ±":2995,"ĠÃ§evir":2996,"Ġperforman":2997,"$$adÄ±ÄŁ":2998,"Ġadres":2999,"Ġfet":3000,"$$aÅŁa":3001,"$$Ã¼ler":3002,"$$tt":3003,"Ġhed":3004,"ĠÃ§iÃ§":3005,"ĠÅŁiir":3006,"$$Ä±mÄ±zÄ±":3007,"ĠÃ§at":3008,"Ġnakl":3009,"Ġreklam":3010,"$$med":3011,"Ġtay":3012,"Ġarab":3013,"ĠtÃ¼rkÃ§e":3014,"Ġyere":3015,"$$fet":3016,"$$enc":3017,"ĠilaÃ§":3018,"Ġarada":3019,"Ġesn":3020,"Ġgol":3021,"Ġmon":3022,"$$Ä±lÄ±ÅŁ":3023,"Ġyeterli":3024,"Ġgay":3025,"Ġmemnun":3026,"ĠatatÃ¼rk":3027,"Ġkampan":3028,"Ġdef":3029,"ĠbalÄ±k":3030,"Ġistiyorum":3031,"Ġmekan":3032,"ĠadlÄ±":3033,"Ġhizmetleri":3034,"$$Ã¼cÃ¼":3035,"Ġpas":3036,"Ġcep":3037,"$$larÄ±m":3038,"Ġalma":3039,"$$bakan":3040,"ĠmÃ¼k":3041,"Ġnisan":3042,"Ġbulundu":3043,"ĠyapÄ±yor":3044,"ĠbaÅŁlayan":3045,"ĠalÄ±yor":3046,"$$enler":3047,"Ġuyar":3048,"ĠbakanÄ±":3049,"Ġfon":3050,"Ġuc":3051,"ĠtÃ¶r":3052,"$$50":3053,"er":3054,"Ġnes":3055,"Ġmiktar":3056,"$$ova":3057,"ĠmÃ¼hend":3058,"$$lÄ±klÄ±":3059,"Ġod":3060,"Ġ23":3061,"Ġlisans":3062,"Ġval":3063,"ler":3064,"Ġbirey":3065,"ĠyeÅŁil":3066,"$$eksiyon":3067,"ĠbahÃ§":3068,"$$aray":3069,"$$tÄ±yor":3070,"Ġmus":3071,"$$imin":3072,"ĠetmiÅŁ":3073,"ĠyaÅŁayan":3074,"ĠbaÅŁlat":3075,"$$yÄ±z":3076,"Ġkuvvet":3077,"Ġgo":3078,"ĠkararÄ±":3079,"Ġeg":3080,"Ġsoy":3081,"Ġahmet":3082,"Ġalacak":3083,"$$dÄ±ÄŁÄ±m":3084,"ĠÃ¶ÄŁrenci":3085,"Ġfiz":3086,"$$erÃ§ev":3087,"$$ons":3088,"ĠiÅŁi":3089,"Ġmesel":3090,"$$ital":3091,"Ġbizi":3092,"ĠbaÅŁÄ±na":3093,"$$ersiz":3094,"Ġaray":3095,"$$ile":3096,"Ġfer":3097,"ĠgiriÅŁim":3098,"$$dem":3099,"Ġtarz":3100,"ĠonlarÄ±n":3101,"$$ha":3102,"Ġsonuc":3103,"Ġmutlaka":3104,"Ġara":3105,"Ġhayal":3106,"$$dÄ±ktan":3107,"Ġstand":3108,"ĠÃ§erÃ§ev":3109,"$$mada":3110,"ĠdÃ¶nemde":3111,"ta":3112,"Ġdam":3113,"Ġnerede":3114,"$$muÅŁtur":3115,"ĠinsanlarÄ±n":3116,"tr":3117,"Ġzengin":3118,"ĠgÃ¶tÃ¼r":3119,"ĠsÄ±kÄ±ntÄ±":3120,"$$inizin":3121,"Ġaraya":3122,"ĠgÃ¼r":3123,"st":3124,"ĠaÃ§Ä±":3125,"Ġ)":3126,"ĠmÃ¼cadel":3127,"$$ku":3128,"Ġrad":3129,"$$Ä±sÄ±na":3130,"$$imli":3131,"ĠÃ¶ÄŁretim":3132,"Ġsefer":3133,"ĠÃ¼rÃ¼nleri":3134,"ĠdÃ¼ÅŁÃ¼nc":3135,"30":3136,"ĠbuluÅŁ":3137,"$$ina":3138,"Ġfirmalar":3139,"ĠsaÄŁlÄ±klÄ±":3140,"Ġlig":3141,"Ġkamer":3142,"ĠsonrasÄ±nda":3143,"ĠbÃ¶ylece":3144,"Ġvermek":3145,"$$Ã¼me":3146,"ĠsÃ¼rec":3147,"Ġ2014":3148,"Ġdeste":3149,"$$fi":3150,"ĠseÃ§enek":3151,"ĠsÃ¶ylem":3152,"ĠaltÄ±na":3153,"$$asi":3154,"Ġdeneyim":3155,"Ġoyunu":3156,"Ġtv":3157,"ĠaÄŁr":3158,"$$yonel":3159,"$$Ã¼mÃ¼":3160,"ĠiÃ§ine":3161,"$$ÄŁÄ±n":3162,"ĠyukarÄ±":3163,"Ġkadro":3164,"$$madÄ±":3165,"2018":3166,"Ġyana":3167,"$$ĠĠ":3168,"Ġmahkem":3169,"ĠÃ§ay":3170,"Ġbol":3171,"Ġarama":3172,"$$ton":3173,"$$neÄŁin":3174,"Ġhad":3175,"$$sen":3176,"ĠhÃ¢":3177,"ĠÅŁampiyon":3178,"Ġrisk":3179,"Ġmeslek":3180,"ĠgÃ¶rÃ¼nt":3181,"$$par":3182,"Ġmilyar":3183,"$$âĢ¦":3184,"$$hp":3185,"Ġtemsilc":3186,"ĠtarÄ±m":3187,"ĠÃ§alÄ±ÅŁmalarÄ±":3188,"ĠbÃ¼yÃ¼kÅŁehir":3189,"$$gar":3190,"ĠÃ§an":3191,"Ġyeri":3192,"Ġetkili":3193,"Ġkural":3194,"Ġbr":3195,"Ġbask":3196,"her":3197,"Ġotomo":3198,"Ġrol":3199,"Ġhuz":3200,"$$masÄ±ndan":3201,"Ġto":3202,"$$Ã¶k":3203,"Ġlim":3204,"Ġhikay":3205,"$$inÃ§":3206,"ĠbunlarÄ±n":3207,"$$Ðµ":3208,"ĠyÄ±ldÄ±z":3209,"Ġpsik":3210,"$$istik":3211,"baÅŁ":3212,"ĠgÃ¼ney":3213,"Ġediyorum":3214,"$$to":3215,"$$siye":3216,"ĠÃ¢":3217,"Ġarz":3218,"ĠyapÄ±lmasÄ±":3219,"Ġonay":3220,"ĠbeÄŁen":3221,"Ġmim":3222,"$$ilendir":3223,"Ġettik":3224,"Ġsiyasi":3225,"$$dam":3226,"$$ullah":3227,"Ġkategor":3228,"ĠkeÅŁ":3229,"Ġbahs":3230,"Ġyada":3231,"ĠbaÅŁlan":3232,"ĠhayÄ±r":3233,"$$Ä±mÄ±zda":3234,"$$bay":3235,"$$alarÄ±nÄ±n":3236,"Ġanne":3237,"$$Ä±mÄ±zÄ±n":3238,"Ġ:)":3239,"$$lamaya":3240,"Ġoperasyon":3241,"Ġbed":3242,"Ġedeb":3243,"$$lenme":3244,"ĠalÄ±ÅŁveriÅŁ":3245,"ĠÅŁid":3246,"ĠsayÄ±":3247,"$$fen":3248,"Ġidar":3249,"Ġderin":3250,"Ġhen":3251,"$$rek":3252,"$$meniz":3253,"ĠacÄ±":3254,"Ġdel":3255,"$$ps":3256,"$$ete":3257,"ĠeÄŁitimi":3258,"$$mayÄ±n":3259,"$$adÄ±ÄŁÄ±":3260,"$$lenmiÅŁ":3261,"ĠyazÄ±lÄ±m":3262,"ĠkaÅŁ":3263,"$$acaktÄ±r":3264,"$$azÄ±":3265,"Ġedilmesi":3266,"Ġbenzer":3267,"Ġnedir":3268,"ĠsÃ¼p":3269,"$$gen":3270,"$$adÄ±k":3271,"ĠkÄ±y":3272,"Ġkendisine":3273,"ĠosmanlÄ±":3274,"Ġpoz":3275,"Ġho":3276,"$$atÃ¶r":3277,"ĠfÄ±rsat":3278,"Ġsokak":3279,"ĠÅŁÃ¼p":3280,"$$akk":3281,"ĠalanÄ±":3282,"Ġdurumunda":3283,"Ġbulunuyor":3284,"$$seniz":3285,"Ġzey":3286,"ĠalanÄ±nda":3287,"$$Ð°":3288,"ĠÃ§in":3289,"ĠdeÄŁerli":3290,"Ġtehlik":3291,"$$lisi":3292,"Ġteknoloji":3293,"Ġfikir":3294,"Ġthe":3295,"$$--":3296,"Ġreh":3297,"Ġsip":3298,"$$lÄ±ÄŁa":3299,"ĠaylÄ±k":3300,"$$gamber":3301,"ĠayÄ±nda":3302,"$$sk":3303,"ĠbaÅŁÄ±nda":3304,"ki":3305,"Ġtatil":3306,"ĠyÃ¶netic":3307,"$$lÄ±ÄŁÄ±n":3308,"$$stos":3309,"Ġkok":3310,"15":3311,"$$ðŁ":3312,"Ġadr":3313,"ĠfiyatlarÄ±":3314,"ĠÃ¶ÄŁ":3315,"Ġplat":3316,"Ġbe":3317,"Ġemin":3318,"$$mÄ±zÄ±":3319,"000":3320,"$$niyet":3321,"Ġdile":3322,"$$ebilecek":3323,"Ġnokta":3324,"$$emin":3325,"Ġfes":3326,"$$ucu":3327,"ĠpiÅŁ":3328,"ĠÃ§arp":3329,"ĠÃ¼yesi":3330,"Ġkemal":3331,"$$ilecek":3332,"$$imizde":3333,"$$adaki":3334,"Ġprofesyonel":3335,"ĠdÃ¼ÄŁ":3336,"Ġimz":3337,"Ġhalde":3338,"ĠgÃ¶rÃ¼ntÃ¼":3339,"$$lenir":3340,"ĠdoÄŁum":3341,"ĠonlarÄ±":3342,"$$dern":3343,"ĠbÃ¶lÃ¼mÃ¼":3344,"ĠiÃ§eri":3345,"ĠÅŁehit":3346,"Ġ40":3347,"Ġchp":3348,"Ġemek":3349,"ĠyÃ¶netimi":3350,"ĠalÄ±r":3351,"Ġyoksa":3352,"ĠaÄŁu":3353,"Ġmilletvekili":3354,"Ġteb":3355,"ĠsaÄŁlar":3356,"ĠcumhurbaÅŁkanÄ±":3357,"$$arÄ±m":3358,"$$ii":3359,"ĠmÃ¼hendis":3360,"$$iri":3361,"Ġberi":3362,"ĠborÃ§":3363,"$$sim":3364,"$$rol":3365,"$$lacak":3366,"Ġta":3367,"ĠayÄ±r":3368,"Ġted":3369,"Ã¶z":3370,"ĠyerleÅŁ":3371,"$$ia":3372,"$$elidir":3373,"kar":3374,"Ġsevg":3375,"$$Ä±ÅŁtÄ±r":3376,"Ġileri":3377,"$$lanma":3378,"Ġkomut":3379,"Ġeylem":3380,"$$yÄ±l":3381,"ĠÅŁarkÄ±":3382,"Ġdolu":3383,"Ġtez":3384,"$$ledik":3385,"Ġsap":3386,"ĠÅŁans":3387,"ĠdÃ¶k":3388,"$$amÄ±":3389,"Ġkonut":3390,"ĠuÃ§ak":3391,"Ġturizm":3392,"Ġbirinci":3393,"$$iliyor":3394,"Ġbilgileri":3395,"$$elerden":3396,"ĠdolayÄ±sÄ±yla":3397,"ĠÃ¶nÃ¼nde":3398,"$$iydi":3399,"ĠmÃ¼ÅŁteri":3400,"Ġ2013":3401,"ĠyapÄ±lÄ±r":3402,"$$acaÄŁÄ±z":3403,"ĠÃ§ocuÄŁ":3404,"$$geÃ§":3405,"or":3406,"ĠdoÄŁu":3407,"Ġsene":3408,"le":3409,"$$Ä±lma":3410,"$$tern":3411,"Ġsuriye":3412,"Ġstandart":3413,"$$azi":3414,"Ġker":3415,"Ġsul":3416,"$$ala":3417,"Ġlider":3418,"Ġdoldur":3419,"Ġdavet":3420,"$$gr":3421,"Ġbazen":3422,"Ġsh":3423,"Ġyandan":3424,"Ġkurtul":3425,"Ġhuzur":3426,"Ġmeclis":3427,"ĠtaÅŁÄ±ma":3428,"$$Ã¢r":3429,"$$lamaz":3430,"Ġantalya":3431,"ĠÃ§evre":3432,"$$lÄ±ÄŁÄ±na":3433,"Ġfar":3434,"ĠyavaÅŁ":3435,"ĠarasÄ±":3436,"$$ydÄ±":3437,"Ġkuzey":3438,"Ġordu":3439,"Ġhala":3440,"yÄ±":3441,"ĠyaÅŁanan":3442,"ĠsayÄ±da":3443,"Ġyapma":3444,"Ġmadd":3445,"ĠÃ§iÃ§ek":3446,"Ġotob":3447,"son":3448,"ĠÅŁar":3449,"$$amet":3450,"Ġdakik":3451,"ĠaÄŁustos":3452,"$$dÄ±ÄŁÄ±nÄ±z":3453,"Ġsa":3454,"ĠartÄ±ÅŁ":3455,"ĠÅŁiddet":3456,"$$evk":3457,"$$Ã¼lÃ¼":3458,"ĠÅŁeyler":3459,"$$cÄ±lar":3460,"ĠolmadÄ±ÄŁÄ±":3461,"ĠderneÄŁi":3462,"Ġhac":3463,"$$Ã¼yle":3464,"$$eyece":3465,"ĠsarÄ±":3466,"Ġonline":3467,"$$Ä±ldÄ±ÄŁÄ±":3468,"ĠsÃ¶yley":3469,"$$ariÅŁ":3470,"ĠbaÅŁta":3471,"ĠsaÄŁlamak":3472,"$$kil":3473,"Ġ2012":3474,"ĠÃ¶deme":3475,"Ġton":3476,"Ġpla":3477,"biz":3478,"$$brÄ±s":3479,"Ġedece":3480,"Ġduvar":3481,"ĠolmadÄ±ÄŁÄ±nÄ±":3482,"Ġfel":3483,"20":3484,"Ġkorun":3485,"Ġbursa":3486,"Ġkarakter":3487,"ĠyardÄ±mcÄ±sÄ±":3488,"$$edeki":3489,"ĠbirleÅŁ":3490,"Ġtaz":3491,"ĠdÃ¼nyada":3492,"ĠgerektiÄŁini":3493,"ĠyansÄ±":3494,"âĢĺ":3495,"$$esindeki":3496,"ĠyazÄ±lÄ±":3497,"Ġbelirten":3498,"Ġ28":3499,"ĠhenÃ¼z":3500,"Ġbitir":3501,"$$rin":3502,"Ġyaparak":3503,"Ġlez":3504,"$$gÃ¶r":3505,"ĠmÃ¼da":3506,"Ġez":3507,"Ġkara":3508,"ĠdÄ±ÅŁÄ±":3509,"$$teki":3510,"$$ult":3511,"Ġfran":3512,"Ġneler":3513,"$$form":3514,"Ġyerel":3515,"ĠÃ§ab":3516,"ĠgÃ¼m":3517,"Ġazal":3518,"ĠÃ¼ye":3519,"Ġnamaz":3520,"$$ulmasÄ±":3521,"Ġrusya":3522,"Ġyun":3523,"$$ansÄ±z":3524,"$$ata":3525,"$$yen":3526,"Ġgerekmektedir":3527,"Ġhafif":3528,"$$ekim":3529,"$$diler":3530,"ĠtÄ±p":3531,"ĠbÃ¶lge":3532,"ĠfakÃ¼ltesi":3533,"ĠodasÄ±":3534,"Ġeve":3535,"Ġsenin":3536,"Ġheyec":3537,"$$bur":3538,"Ġilgi":3539,"Ġalanda":3540,"Ġaj":3541,"$$sÄ±zlÄ±k":3542,"$$Ä±sÄ±nÄ±n":3543,"Ġpeygamber":3544,"ĠkÄ±ÅŁ":3545,"Ġpet":3546,"Ġdefa":3547,"ĠhÃ¼c":3548,"ĠÅŁubat":3549,"ĠmÃ¼slÃ¼man":3550,"$$abet":3551,"Ġesk":3552,"ĠlÃ¼t":3553,"$$larÄ±nÄ±zÄ±":3554,"$$daÅŁ":3555,"$$mayacak":3556,"Ġday":3557,"$$Ä±lmaz":3558,"Ġelem":3559,"ĠsaldÄ±rÄ±":3560,"Ġzam":3561,"$$tuk":3562,"Ġkomisyon":3563,"$$umsuz":3564,"ĠlazÄ±m":3565,"$$layÄ±n":3566,"$$Ä±ma":3567,"Ġkonum":3568,"ĠaÅŁaÄŁÄ±daki":3569,"Â´":3570,"ĠgÃ¶steren":3571,"ĠnÃ¼f":3572,"Ġdosy":3573,"Ġop":3574,"Ġyapacak":3575,"ĠhastalÄ±":3576,"ĠyerleÅŁtir":3577,"daki":3578,"ĠboÄŁ":3579,"ĠtaÅŁÄ±n":3580,"$$lediÄŁi":3581,"Ġfirma":3582,"ĠkiÅŁisel":3583,"Ġtavsiye":3584,"Ġprojesi":3585,"Ġkurtar":3586,"ĠkÃ¶p":3587,"Ġ?":3588,"ĠÅŁik":3589,"$$asÄ±yla":3590,"Ġfizik":3591,"Ġfi":3592,"Ġtuz":3593,"ĠÃ§oÄŁu":3594,"$$esiz":3595,"Ġkimse":3596,"$$best":3597,"Ġduygu":3598,"Ġtecr":3599,"Ġsalon":3600,"$$alarÄ±na":3601,"$$emek":3602,"$$etleri":3603,"ĠarttÄ±r":3604,"Ġbirim":3605,"Ġuygulamalar":3606,"Ġgrubu":3607,"ĠsÄ±rada":3608,"$$lardÄ±":3609,"Ġpop":3610,"Ġkavram":3611,"Ġkitab":3612,"ngilizce":3613,"$$izasyon":3614,"ĠsaÄŁlan":3615,"$$tepe":3616,"Ġveriyor":3617,"ĠsipariÅŁ":3618,"Ġ27":3619,"Ġmodern":3620,"ĠtatlÄ±":3621,"ĠeleÅŁtir":3622,"ĠÅŁÃ¼ph":3623,"Ġbon":3624,"ĠÃ¶den":3625,"Ġmac":3626,"$$ogle":3627,"$$asa":3628,"$$iyah":3629,"$$uklu":3630,"Ġgenellikle":3631,"Ġarac":3632,"$$liÄŁinde":3633,"$$eyle":3634,"ĠistediÄŁiniz":3635,"Ġorada":3636,"Ġalarak":3637,"ĠyapmÄ±ÅŁ":3638,"lÃ§e":3639,"ĠyayÄ±m":3640,"ĠvÃ¼cu":3641,"ĠmeÅŁ":3642,"Ġgide":3643,"ĠsayÄ±n":3644,"Ġulusal":3645,"Ġkesinlikle":3646,"Ġfinans":3647,"Ġkayde":3648,"$$ww":3649,"Ġolursa":3650,"ĠyaÅŁÄ±nda":3651,"$$evizyon":3652,"Ġgazi":3653,"Ġport":3654,"Ġkullanarak":3655,"$$Ä±za":3656,"$$aÄŁa":3657,"ĠsaÄŁlayan":3658,"ĠiÅŁÃ§":3659,"ĠaltÄ±":3660,"Ġsitemiz":3661,"$$lerinizi":3662,"ĠÅŁeyi":3663,"Ġsim":3664,"$$Ã¤":3665,"Ġ26":3666,"Ġbelirtti":3667,"ĠbaskÄ±":3668,"$$dikleri":3669,"$$atej":3670,"Ġederim":3671,"$$antaj":3672,"ĠkÄ±l":3673,"ĠbaÅŁbakan":3674,"Ġvurgu":3675,"Ġkup":3676,"Ġamel":3677,"$$sas":3678,"Ġonlara":3679,"ĠiÃ§i":3680,"$$abiliyor":3681,"Ġbirisi":3682,"Ġsayfa":3683,"Ġtaleb":3684,"$$asÄ±ndan":3685,"$$enk":3686,"ĠÃ§ap":3687,"Ġservisi":3688,"Ġmur":3689,"ĠgÃ¶rmek":3690,"$$hi":3691,"$$tÄ±ÄŁÄ±nÄ±":3692,"Ġkendine":3693,"Ġplatform":3694,"$$Ä±labil":3695,"Ġtor":3696,"ĠolmuÅŁtur":3697,"Ġrah":3698,"Ġalmanya":3699,"$$rail":3700,"$$mÃ¼r":3701,"Ġbasit":3702,"$$yÄ±m":3703,"ĠgÃ¼c":3704,"$$lÄ±klar":3705,"Ġsamsun":3706,"Ġyeter":3707,"Ġhayata":3708,"$$ronik":3709,"ĠgÃ¶rÃ¼yor":3710,"ĠbunlarÄ±":3711,"$$stik":3712,"Ġyararlan":3713,"Ġkeyif":3714,"$$leriniz":3715,"18":3716,"Ġifad":3717,"$$duÄŁunu":3718,"Ġhisset":3719,"Ġsonraki":3720,"Ġtakdir":3721,"Ġettir":3722,"Ġsert":3723,"ĠedilmiÅŁ":3724,"Ġhap":3725,"Ġduyur":3726,"$$ke":3727,"ĠsÃ¼per":3728,"Ġerken":3729,"$$ektedir":3730,"$$ij":3731,"Ġeb":3732,"Ġolmas":3733,"ĠhÄ±r":3734,"ĠgÃ¶nÃ¼l":3735,"ĠkÃ¶ÅŁ":3736,"Ġzorun":3737,"ĠkÄ±lÄ±":3738,"Ġcem":3739,"Ġmahallesi":3740,"Ġyolc":3741,"Ġotomobil":3742,"$$ÄŁer":3743,"ĠÃ§ocuklar":3744,"ran":3745,"$$larÄ±mÄ±zÄ±n":3746,"$$lÃ¼yor":3747,"Ġserbest":3748,"$$lÄ±klarÄ±":3749,"$$tiler":3750,"Ġamerika":3751,"ĠyetiÅŁ":3752,"$$uÃ§":3753,"Ġediyoruz":3754,"ni":3755,"$$abz":3756,"ĠyetiÅŁtir":3757,"Ġroman":3758,"$$co":3759,"$$Ã¢h":3760,"Ġgelin":3761,"Ġstratej":3762,"Ġyerinde":3763,"ĠkarÅŁÄ±sÄ±nda":3764,"Ġfab":3765,"Ġgr":3766,"Ġkalp":3767,"$$dÃ¼m":3768,"Ġolumsuz":3769,"Ġhd":3770,"Ġucuz":3771,"Ġkahv":3772,"ĠdÃ¶neminde":3773,"Ġasla":3774,"Ġmarka":3775,"Ġemniyet":3776,"$$nam":3777,"Ġtoplu":3778,"Ġkans":3779,"$$kar":3780,"$$book":3781,"Ġsunuyor":3782,"Ġgitti":3783,"$$tere":3784,"$$spor":3785,"Ġperformans":3786,"ĠÃ§elik":3787,"ĠkÄ±brÄ±s":3788,"ĠyapÄ±m":3789,"Ġpor":3790,"$$say":3791,"Ġsana":3792,"Ġhoc":3793,"ĠÃ¼Ã§Ã¼ncÃ¼":3794,"$$artesi":3795,"Ġsine":3796,"ĠdeÄŁiÅŁim":3797,"Ġizley":3798,"Ġtahmin":3799,"$$allah":3800,"$$kenin":3801,"$$miÅŁti":3802,"Ġ*":3803,"Ġkum":3804,"Ġihtiyac":3805,"$$taki":3806,"ĠkÄ±rmÄ±zÄ±":3807,"$$dal":3808,"Ġ&":3809,"ĠkapalÄ±":3810,"Ġolmaya":3811,"Ġisimli":3812,"$$terek":3813,"Ġib":3814,"ĠyÄ±llar":3815,"$$Ä±larak":3816,"ĠhakkÄ±":3817,"$$liÄŁe":3818,"ĠkazandÄ±r":3819,"Ġ29":3820,"$$ze":3821,"$$emmel":3822,"ĠÃ¼rÃ¼nler":3823,"ĠgÄ±da":3824,"ĠÅŁif":3825,"ĠkÃ¼t":3826,"ĠhayatÄ±nÄ±":3827,"$$are":3828,"Ġkendisi":3829,"ĠÃ¶nÃ¼ne":3830,"ĠÅŁaÅŁ":3831,"$$aha":3832,"Ġakadem":3833,"$$cilik":3834,"Ġetik":3835,"Ġokuy":3836,"Ġeur":3837,"Ġevde":3838,"ĠdavranÄ±ÅŁ":3839,"ĠaÃ§Ä±klamada":3840,"Ġtutar":3841,"ĠÅŁeker":3842,"ĠbÃ¶":3843,"$$ediler":3844,"$$iyim":3845,"ĠbarÄ±ÅŁ":3846,"$$abilmek":3847,"ĠdetaylÄ±":3848,"$$iÄŁi":3849,"Ġaya":3850,"Ġsonucunda":3851,"$$ard":3852,"$$ilme":3853,"ĠhazÄ±rla":3854,"ĠdÃ¶v":3855,"Ġorman":3856,"$$muyor":3857,"$$elerinden":3858,"Ġenf":3859,"ĠyÃ¼rÃ¼y":3860,"$$endi":3861,"Ġsultan":3862,"ĠÃ¶rneÄŁin":3863,"deki":3864,"ĠdÃ¼zenlem":3865,"ĠsÃ¼resi":3866,"ĠyÄ±llarda":3867,"Ġkoruma":3868,"$$anan":3869,"$$lari":3870,"$$raman":3871,"ĠmaÄŁaz":3872,"Ġvit":3873,"Ġhesab":3874,"ĠhazÄ±rlan":3875,"ĠparÃ§a":3876,"el":3877,"Ġsaf":3878,"$$Ä±lmÄ±ÅŁtÄ±r":3879,"ĠgÃ¶ren":3880,"Ġnaz":3881,"$$elerle":3882,"ĠmÄ±s":3883,"ĠiÅŁe":3884,"ĠhÃ¼kÃ¼met":3885,"$$iÅŁi":3886,"ĠbaÅŁkanlÄ±ÄŁÄ±":3887,"Ġcinsel":3888,"$$ub":3889,"$$kk":3890,"ĠkaÄŁÄ±":3891,"Ġfestiv":3892,"Ġikti":3893,"dev":3894,"ĠbaÅŁlar":3895,"Ġsahiptir":3896,"$$iÅŁleri":3897,"$$erv":3898,"$$lasyon":3899,"ĠdÄ±ÅŁarÄ±":3900,"lar":3901,"Ġsik":3902,"Ġbeden":3903,"bur":3904,"Ġsivil":3905,"ĠyapÄ±ldÄ±":3906,"Ġanay":3907,"la":3908,"Ġzevk":3909,"ĠbatÄ±":3910,"Ġvergi":3911,"ĠvazgeÃ§":3912,"Ġsiyah":3913,"Ġetmektedir":3914,".,":3915,"Ġvb":3916,"ĠÅŁiÅŁ":3917,"ĠalmÄ±ÅŁ":3918,"Ġbuy":3919,"Ġ+":3920,"Ġsite":3921,"$$erler":3922,"$$masÄ±yla":3923,"$$liÄŁin":3924,"$$ulur":3925,"Ġverilm":3926,"Ġpaket":3927,"Ġprot":3928,"ĠgÃ¶Ã§":3929,"Ġmel":3930,"$$haba":3931,"mer":3932,"$$cil":3933,"ĠkÃ¼rt":3934,"$$umak":3935,"aki":3936,"ĠkarÄ±ÅŁtÄ±r":3937,"Ġhus":3938,"$$Ä±ndÄ±r":3939,"$$ise":3940,"Ġanlamda":3941,"Ġnur":3942,"$$racat":3943,"$$yse":3944,"$$tarÄ±":3945,"ĠÃ§or":3946,"ĠyarÄ±":3947,"Ġgiden":3948,"ĠÃ§Ä±kÄ±ÅŁ":3949,"Ġbec":3950,"ĠoranÄ±":3951,"Ġmodelleri":3952,"Ġbelirtilen":3953,"ĠÅŁer":3954,"$$alim":3955,"ĠalÄ±p":3956,"Ġ31":3957,"$$Ã¼ny":3958,"Ġatan":3959,"Ġodak":3960,"$$ens":3961,"$$ÄŁretim":3962,"Ġlin":3963,"$$qu":3964,"Ġkod":3965,"ĠinsanÄ±n":3966,"Ġsorumlu":3967,"ĠdÃ¼ÅŁÃ¼r":3968,"ĠbÃ¼r":3969,"$$eyiz":3970,"$$elt":3971,"ĠsaygÄ±":3972,"ĠmÃ¼kemmel":3973,"$$ud":3974,"Ġkla":3975,"Ġ198":3976,"Ġhol":3977,"gen":3978,"ĠteÅŁkil":3979,"ĠkaldÄ±":3980,"$$iktaÅŁ":3981,"Ġedip":3982,"$$edek":3983,"$$zet":3984,"Ġtok":3985,"ĠsÃ¼rede":3986,"$$urum":3987,"$$tih":3988,"Ġkendisini":3989,"ĠgÃ¼venli":3990,"Ġverildi":3991,"ĠÃ¶ne":3992,"ĠeÅŁit":3993,"ĠyaÅŁama":3994,"Ġtelevizyon":3995,"ĠkulÃ¼b":3996,"Ġha":3997,"Ġdis":3998,"ĠÃ¶ncesi":3999,"ĠyaygÄ±n":4000,"$$undaki":4001,"ab":4002,"Ġsorunu":4003,"Ġhz":4004,"ĠiÅŁbir":4005,"Ġsona":4006,"$$erseniz":4007,"gÃ¼n":4008,"Ġseyahat":4009,"Ġetmeye":4010,"Ġaskeri":4011,"ĠkitabÄ±":4012,"$$layÄ±p":4013,"Ġcm":4014,"Ġetme":4015,"tal":4016,"ĠlÃ¼tfen":4017,"Ġ2011":4018,"Ġfaiz":4019,"srail":4020,"$$lus":4021,"Ġalb":4022,"ĠiÃ§erik":4023,"$$dat":4024,"ĠiÅŁte":4025,"ĠotobÃ¼s":4026,"$$larÄ±mÄ±zÄ±":4027,"ĠgeliÅŁim":4028,"$$yacaÄŁ":4029,"$$meni":4030,"$$acaÄŁÄ±nÄ±":4031,"Ġfr":4032,"Ġharika":4033,"Ġyola":4034,"Ġyatak":4035,"Ġcilt":4036,"$$tis":4037,"Ġkop":4038,"ĠkadÄ±nlar":4039,"Ġgoogle":4040,"$$bahÃ§e":4041,"$$iyatro":4042,"$$dikten":4043,"$$Ã¼ndeki":4044,"ĠÃ¶ncelikle":4045,"ĠbaÄŁÄ±msÄ±z":4046,"Ġkoca":4047,"Ġred":4048,"ĠÃ¶zellikleri":4049,"Ġgirdi":4050,"$$liÄŁine":4051,"Ġmeydan":4052,"Ġrez":4053,"ĠÄ±ÅŁÄ±k":4054,"Ġyah":4055,"ĠÄ±sÄ±":4056,"ĠÃ¼niversite":4057,"Ã¶n":4058,"$$irler":4059,"$$ani":4060,"$$ore":4061,"$$ÄŁinden":4062,"ĠkullanÄ±mÄ±":4063,"ĠgÃ¼nlerde":4064,"Ġedebiyat":4065,"ĠyanÄ±t":4066,"$$atas":4067,"Ġkli":4068,"Ġbet":4069,"Ġbelirterek":4070,"$$isinden":4071,"ĠÂĵ":4072,"Ġseni":4073,"Ġavantaj":4074,"$$Ä±ÅŁma":4075,"Ġkapas":4076,"Ġveri":4077,"$$mur":4078,"$$ks":4079,"ĠyaÅŁÄ±ndaki":4080,"Ġkampany":4081,"ĠsoÄŁuk":4082,"ĠasÄ±l":4083,"Ġ60":4084,"ĠkatÄ±ldÄ±":4085,"nÅŁ":4086,"Ġpil":4087,"Ġsahn":4088,"Ġelektronik":4089,"Ġdahi":4090,"ĠvÃ¼cut":4091,"Ġide":4092,"ĠalÄ±m":4093,"$$tay":4094,"hay":4095,"Ġsuyu":4096,"ĠakÄ±llÄ±":4097,"Ġhasta":4098,"ĠdÃ¼zenlen":4099,"Ġetraf":4100,"$$onya":4101,"Ġtabii":4102,"Ġaktif":4103,"Ġtrafik":4104,"$$ess":4105,"$$inal":4106,"Ġsermay":4107,"$$cebook":4108,"ĠolmasÄ±na":4109,"Ġkm":4110,"Ġkaydet":4111,"$$bal":4112,"$$mar":4113,"$$ÄŁe":4114,"Ġderec":4115,"Ġadalet":4116,"Ġsistemleri":4117,"ĠhanÄ±m":4118,"ĠaÃ§Ä±lÄ±ÅŁ":4119,"$$ediÄŁi":4120,"ĠtÃ¶ren":4121,"ĠkiÅŁilik":4122,"Ġbilinen":4123,"$$daÄŁ":4124,"Ġhaberleri":4125,"16":4126,"ĠaÅŁÄ±rÄ±":4127,"Ġyapmaya":4128,"$$gal":4129,"$$sizlik":4130,"ĠÃ¼lkenin":4131,"Ġtane":4132,"Ġgerektir":4133,"Ġyasak":4134,"$$mÄ±":4135,"Ġolumlu":4136,"ĠgÃ¶l":4137,"ĠhÃ¼s":4138,"ĠyÄ±lda":4139,"$$//":4140,"Ġmimar":4141,"Ġkahraman":4142,"Ġdenetim":4143,"ĠÃ¼m":4144,"Ġba":4145,"Ġimkan":4146,"Ġyetkil":4147,"Ġgiren":4148,"ĠÃ¶zelliÄŁi":4149,"Ġned":4150,"Ġtransfer":4151,"Ġtablo":4152,"$$iyordu":4153,"Ġimza":4154,"Ġotomatik":4155,"Ġkomp":4156,"Ġciv":4157,"Ġ>":4158,"$$yer":4159,"$$yap":4160,"Ġmezun":4161,"Ġrest":4162,"Ġortalama":4163,"$$ayÄ±f":4164,"ĠÃ¶lÃ§Ã¼":4165,"Ġduyg":4166,"dÃ¼n":4167,"$$iber":4168,"Ġbende":4169,"$$bette":4170,"ĠgeÃ§erli":4171,"$$ilim":4172,"Ġism":4173,"$$ger":4174,"Ġtiyatro":4175,"$$emiÅŁ":4176,"$$laÅŁma":4177,"Ġmaddes":4178,"$$Ã¼stÃ¼":4179,"$$ersin":4180,"ĠpeÅŁ":4181,"Ġ=":4182,"Ġ500":4183,"Ġco":4184,"ĠyÃ¼zyÄ±l":4185,"$$lerimizi":4186,"$$mm":4187,"$$atasaray":4188,"$$lerim":4189,"Ġref":4190,"Â±":4191,"Ġcer":4192,"Ġakp":4193,"Ġtemin":4194,"Ġfener":4195,"Ġgelenek":4196,"$$dr":4197,"Ġblog":4198,"yeni":4199,"pro":4200,"ĠyayÄ±nlarÄ±":4201,"$$iyer":4202,"Ġbitk":4203,"Ġlira":4204,"Ġkamp":4205,"$$rim":4206,"ĠyalnÄ±zca":4207,"Ġarap":4208,"ngiltere":4209,"14":4210,"$$ÄŁiz":4211,"Ġyaralan":4212,"://":4213,"Ġameliyat":4214,"Ġharit":4215,"$$iklet":4216,"Ġedebil":4217,"ĠeÅŁy":4218,"ĠayÄ±":4219,"Ġiddia":4220,"$$aka":4221,"Ġmaliyet":4222,"ĠtÄ±r":4223,"Ġmisaf":4224,"Ġboya":4225,"$$uldu":4226,"ĠkiÅŁilerin":4227,"Ġsunu":4228,"ĠÃ§alÄ±ÅŁÄ±yor":4229,"25":4230,"Ġherkesin":4231,"Ġetkisi":4232,"$$ham":4233,"$$ilebilir":4234,"13":4235,"ĠilÃ§esinde":4236,"Ġdokun":4237,"ĠbÃ¼ny":4238,"ĠbiÃ§imde":4239,"24":4240,"$$ÄŁinin":4241,"$$eceÄŁiz":4242,"Ġvakit":4243,"ĠayrÄ±ntÄ±":4244,"Ġsiyaset":4245,"Ġnedeni":4246,"$$liler":4247,"ĠcÃ¼m":4248,"ĠyÄ±lÄ±n":4249,"Ġdekor":4250,"ĠdoÄŁan":4251,"$$cusu":4252,"$$ÄŁan":4253,"ek":4254,"$$isiyle":4255,"as":4256,"ĠkÃ¶k":4257,"ĠmÃ¼ÅŁteriler":4258,"ĠdoÄŁrudan":4259,"Ġmetin":4260,"ĠolduÄŁuna":4261,"ĠzayÄ±f":4262,"Ġanaliz":4263,"Ġth":4264,"Ġnitelik":4265,"ĠyÄ±lmaz":4266,"Ġces":4267,"ĠÃ¼zerindeki":4268,"ĠðŁ":4269,"Ġfilmi":4270,"Ġmesaf":4271,"Ġdiyerek":4272,"Ġzih":4273,"Ã§in":4274,"ĠgÃ¶rsel":4275,"Ġevet":4276,"ĠÃ¶nemlidir":4277,"nternet":4278,"$$ck":4279,"Ġbelirli":4280,"ĠgeÃ§iÅŁ":4281,"Ġgrub":4282,"nden":4283,"ĠÃ§eken":4284,"$$diÄŁini":4285,"$$20":4286,"Ġbirik":4287,"ĠinÅŁaat":4288,"ĠiÅŁlemi":4289,"Ġokun":4290,"$$iyan":4291,"ĠaÄŁaÃ§":4292,"ĠtakÄ±mÄ±":4293,"$$mekten":4294,"$$usunu":4295,"$$kÃ¶y":4296,"ĠtecrÃ¼b":4297,"$$dit":4298,"Ġkesim":4299,"Ġseks":4300,"Ġtad":4301,"$$memiÅŁ":4302,"$$Ã¶yl":4303,"ĠoyunlarÄ±":4304,"$$Ã§iler":4305,"ĠaÄŁrÄ±":4306,"$$lÄ±ÄŁÄ±nÄ±n":4307,"ĠsoruÅŁtur":4308,"Ġpartisi":4309,"ĠsÃ¶ylÃ¼yor":4310,"Ġdepo":4311,"ĠdanÄ±ÅŁman":4312,"ĠdoÄŁrult":4313,"Ġgem":4314,"Ġince":4315,"ĠÃ¼stÃ¼n":4316,"Ġamerik":4317,"Ġanah":4318,"ĠsÄ±f":4319,"ĠgeÃ§tiÄŁimiz":4320,"$$hane":4321,"$$ner":4322,"ĠgÃ¶rdÃ¼ÄŁ":4323,"Ġmemur":4324,"ĠÅŁikayet":4325,"ĠÃ¶nlem":4326,"$$Ã¼ley":4327,"Ġzeytin":4328,"Ġuyan":4329,"Ġnakliyat":4330,"lÃ§":4331,"Ġdeney":4332,"ndan":4333,"ĠdÃ¼ÅŁman":4334,"ĠsaÄŁlayacak":4335,"$$ecep":4336,"Ġajans":4337,"Ġhediye":4338,"Ġhakim":4339,"ĠÃ§Ä±kÄ±yor":4340,"Ġortadan":4341,"$$Ä±nar":4342,"Ġdiren":4343,"$$Ä±nma":4344,"Ġgetiren":4345,"Ġticari":4346,"Ġsk":4347,"Ġfayda":4348,"$$rika":4349,"Ġrab":4350,"Ġtrabz":4351,"$$ayla":4352,"$$gÄ±Ã§":4353,"$$layÄ±cÄ±":4354,"ĠâĢ¦":4355,"Ġkendilerine":4356,"$$zi":4357,"ĠolacaÄŁ":4358,"$$lili":4359,"Ġgizli":4360,"$$Ä±b":4361,"âĢĿ,":4362,"ĠgÃ¼venilir":4363,"ĠÃ¶t":4364,"Ġimk":4365,"ĠdÃ¼zenli":4366,"Ġata":4367,"ĠÅŁen":4368,"$$inizde":4369,"Ġekley":4370,"$$yet":4371,"ĠinÅŁa":4372,"Ġyakal":4373,"ĠkÄ±smÄ±":4374,"Ġkaymak":4375,"Ġsigort":4376,"$$iyorlar":4377,"ĠkarÅŁÄ±lÄ±":4378,"Ġhepsi":4379,"$$mail":4380,"$$lamasÄ±":4381,"Ġdizi":4382,"$$lÄ±ÄŁÄ±yla":4383,"Ġob":4384,"Ġsorumluluk":4385,"Ġbirden":4386,"Ġka":4387,"ĠÃ¶nceden":4388,"Ġuns":4389,"$$Ã§ak":4390,"Ġkonak":4391,"ĠnÃ¼fus":4392,"$$sini":4393,"Ġfeder":4394,"Ġmutfak":4395,"ĠbakÄ±ÅŁ":4396,"ĠuÄŁ":4397,"Ġins":4398,"Ġbulunma":4399,"ĠÅŁÄ±k":4400,"2017":4401,"tan":4402,"Ġkus":4403,"Ġgur":4404,"$$ternatif":4405,"$$maktan":4406,"$$maktay":4407,"Ġalk":4408,"Ġacil":4409,"$$celi":4410,"Ġkanunun":4411,"17":4412,"$$ust":4413,"ĠolmasÄ±nÄ±":4414,"$$no":4415,"Ġkalite":4416,"$$zu":4417,"$$ura":4418,"Ġtemizlik":4419,"ĠkalÄ±n":4420,"ĠkÄ±zÄ±":4421,"ĠdÃ¼ÅŁÃ¼nÃ¼yorum":4422,"ĠsanatÃ§Ä±":4423,"ĠbankasÄ±":4424,"Ġvek":4425,"ĠÃ§oÄŁun":4426,"ĠÂ»":4427,"ĠbÃ¶lgesinde":4428,"ĠÃ§ocuklarÄ±n":4429,"$$ation":4430,"$$malarÄ±nÄ±":4431,"ĠtasarÄ±mÄ±":4432,"$$ÄŁÄ±nda":4433,"ĠÃ§oÄŁ":4434,"ĠtanÄ±t":4435,"Ġistek":4436,"$$ros":4437,"ĠbeÅŁiktaÅŁ":4438,"ĠsÄ±v":4439,"$$gaz":4440,"$$baÅŁÄ±":4441,"eki":4442,"$$abileceÄŁiniz":4443,"$$ino":4444,"Ġmurat":4445,"ĠyÄ±ldÄ±rÄ±m":4446,"ĠyapÄ±mÄ±":4447,"Ġkanunu":4448,"$$dÄ±klarÄ±nÄ±":4449,"Ġbence":4450,"$$ÅŁey":4451,"ĠdoÄŁrultusunda":4452,"ĠmÃ¼t":4453,"Ġyunan":4454,"Ġistih":4455,"ĠuÄŁraÅŁ":4456,"Ġhasan":4457,"Ġmor":4458,"Ġex":4459,"Ġyarg":4460,"Ġbiy":4461,"Ġbuz":4462,"Ġtoplumsal":4463,"ĠiÃ§eren":4464,"ĠyapÄ±lmÄ±ÅŁ":4465,"Ġbilir":4466,"Ġrecep":4467,"$$alardan":4468,"Ġolanlar":4469,"$$acaÄŁÄ±nÄ±z":4470,"ĠyatÄ±r":4471,"ĠfiyatÄ±":4472,"Ġusul":4473,"Ġsuy":4474,"Ġheyecan":4475,"Ġayakk":4476,"Ġkoc":4477,"ĠeriÅŁ":4478,"$$rahim":4479,"ĠÅŁef":4480,"$$ima":4481,"$$urken":4482,"$$eyecek":4483,"ĠrahatsÄ±z":4484,"ĠbaÅŁlÄ±yor":4485,"ĠtanÄ±tÄ±m":4486,"Ġetmesi":4487,"Ġalabilirsiniz":4488,"Ġpen":4489,"Ġtutuk":4490,"$$rem":4491,"Ġadana":4492,"Ġolmadan":4493,"Ġvad":4494,"ĠolduÄŁumuz":4495,"Ġarka":4496,"ĠbÃ¶lgede":4497,"ĠÃ¶zen":4498,"Ġï¿½":4499,"$$ire":4500,"$$ulmuÅŁ":4501,"Ġcadde":4502,"ĠsaÄŁlÄ±ÄŁÄ±":4503,"$$mamÄ±ÅŁ":4504,"Ġdiler":4505,"ev":4506,"ĠgelmiÅŁ":4507,"Ġtarihli":4508,"Ġust":4509,"ĠÃ§erÃ§evesinde":4510,"Ġten":4511,"ĠgenÃ§lik":4512,"lik":4513,"ĠkanÄ±":4514,"$$ayÄ±n":4515,"Ġekib":4516,"Ġelbette":4517,"Ġkapasit":4518,"ĠhaklarÄ±":4519,"Ġavuk":4520,"Ġalternatif":4521,"Ġfacebook":4522,"ĠsonuÃ§larÄ±":4523,"ĠsÃ¼reci":4524,"ĠgÃ¼nÃ¼mÃ¼zde":4525,"$$sÃ¼z":4526,"Ġanti":4527,"Ġters":4528,"$$orta":4529,"Ġdeng":4530,"Ġgiderek":4531,"$$Ä±nÄ±zÄ±n":4532,"ĠkonuÅŁma":4533,"$$udi":4534,"$$lÄ±ÄŁÄ±nda":4535,"Ġyerini":4536,"ÂĶ":4537,"Ġharc":4538,"$$irken":4539,"Ġcumhuriyeti":4540,"ĠkatÄ±lan":4541,"$$diÄŁiniz":4542,"$$Ä±sÄ±z":4543,"ĠtanÄ±ÅŁ":4544,"$$yip":4545,"ĠanlayÄ±ÅŁ":4546,"ĠhazÄ±rlanan":4547,"Ġyo":4548,"Ġneredeyse":4549,"Ġeh":4550,"Ġcok":4551,"Ġelb":4552,"kinci":4553,"ĠdÃ¼nyaya":4554,"$$Ã¶ÄŁretim":4555,"Ġdedim":4556,"ĠkÃ¶pr":4557,"$$Ä±c":4558,"ĠsaÄŁlam":4559,"Ġbaba":4560,"$$do":4561,"Ġsizler":4562,"$$Ä±mÄ±n":4563,"Ġmir":4564,"$$bin":4565,"ĠaÃ§Ä±kladÄ±":4566,"Ġofis":4567,"Ġkurumsal":4568,"ĠsÃ¼s":4569,"Ġmesl":4570,"ĠmÃ¼l":4571,"50":4572,"Ġyaparken":4573,"$$ilerden":4574,"Ġfatih":4575,"ĠbÃ¶lgesi":4576,"$$emen":4577,"Ġbecer":4578,"Ġyerli":4579,"Ġmoda":4580,"ĠdÃ¶nemi":4581,"Ġdiyen":4582,"$$ave":4583,"ĠkullanÄ±lÄ±r":4584,"Ġyalan":4585,"$$fÄ±":4586,"Ġokuma":4587,"ĠÃ¶ngÃ¶r":4588,"ĠadÄ±nÄ±":4589,"$$imleri":4590,"$$anbul":4591,"Ġiyil":4592,"Ġrestor":4593,"ĠgÃ¼cÃ¼":4594,"$$ilmektedir":4595,"$$mesinin":4596,"Ġmill":4597,"Ġsavunma":4598,"$$teÅŁem":4599,"Ġtw":4600,"Ġbinlerce":4601,"Ġrenkli":4602,"Ġbozuk":4603,"Ã¶zel":4604,"$$int":4605,"ĠÃ¼lkede":4606,"Ġyasal":4607,"$$acaÄŁÄ±m":4608,"Ġdij":4609,"Ġorganizasyon":4610,"Ġpozisyon":4611,"Ġrakam":4612,"Ġolanak":4613,"ĠalÄ±na":4614,"ÅŁlet":4615,"ĠvÃ¼cud":4616,"$$ladÄ±ÄŁÄ±":4617,"$$akat":4618,"$$lanÄ±yor":4619,"$$vik":4620,"$$amazan":4621,"on":4622,"Ġcar":4623,"daha":4624,"$$uyorum":4625,"Ġtoz":4626,"$$nak":4627,"ĠanlamÄ±na":4628,"ĠfÄ±k":4629,"$$arÄ±nda":4630,"ĠÃ§ak":4631,"Ġbom":4632,"Ġverecek":4633,"Ġhit":4634,"Ġgetirdi":4635,"Ġedebilirsiniz":4636,"Ġbekliyor":4637,"ĠyaÅŁlÄ±":4638,"$$yÃ¼z":4639,"Ġ2010":4640,"ĠkÄ±ya":4641,"$$âĢ¦]":4642,"ĠhazÄ±rlÄ±k":4643,"Ġzek":4644,"ĠolduÄŁundan":4645,"$$anet":4646,"ĠÃ¶nÃ¼mÃ¼z":4647,"'s":4648,"Ġirak":4649,"$$emesi":4650,"Ġrast":4651,"ĠÃ¼rÃ¼nÃ¼":4652,"Ġcuma":4653,"$$pt":4654,"brahim":4655,"ĠdeÄŁeri":4656,"Ġbiliyor":4657,"ĠalmaktadÄ±r":4658,"Ġbelirlen":4659,"ĠdolaÅŁ":4660,"Ġkurs":4661,"Ġpeki":4662,"Ġhtt":4663,"Ġyakalan":4664,"$$anlarÄ±":4665,"Ġlezzet":4666,"ĠduruÅŁ":4667,"ĠkiÅŁiye":4668,"$$ong":4669,"Ġumut":4670,"Ġkurulan":4671,"Ġkonya":4672,"ĠendÃ¼":4673,"Ġduyar":4674,"ĠÃ¼retic":4675,"Ġyiye":4676,"$$dÃ¼z":4677,"Ġbelgesi":4678,"Ġ35":4679,"$$illi":4680,"Ġmisafir":4681,"ĠdÃ¶nÃ¼ÅŁtÃ¼r":4682,"Ġdaire":4683,"$$sit":4684,"Ġgeb":4685,"Ã§ok":4686,"$$aca":4687,"Ġnin":4688,"Ġkulak":4689,"Ġdijital":4690,"ĠyÃ¶nlendir":4691,"ĠkullandÄ±":4692,"Ġhastanesi":4693,"Ġitir":4694,"ĠÅŁun":4695,"Ġvan":4696,"Ġiptal":4697,"Ġ197":4698,"Ġtu":4699,"ĠÃ§alÄ±ÅŁmasÄ±":4700,"''":4701,"$$unuzu":4702,"Ġmuham":4703,"ĠiÅŁlemleri":4704,"$$iter":4705,"Ġtit":4706,"Ġistik":4707,"ĠyaÅŁat":4708,"Ġeklen":4709,"Ġbilimsel":4710,"madde":4711,"bil":4712,"$$emizde":4713,"$$larÄ±mÄ±za":4714,"Ġazalt":4715,"Ġgalatasaray":4716,"$$ksiyon":4717,"ĠsÃ¶yleyen":4718,"ĠaÅŁaÄŁÄ±da":4719,"ĠuygulamasÄ±":4720,"liÅŁ":4721,"Ġsabit":4722,"Ġbis":4723,"$$ai":4724,"ĠgÃ¼zellik":4725,"ĠgÃ¼ndem":4726,"$$ows":4727,"Ġmekt":4728,"Ġbilgilendir":4729,"$$hat":4730,"ĠdesteÄŁi":4731,"$$diÄŁim":4732,"Ġep":4733,"$$hone":4734,"ĠgerÃ§ekleÅŁtirilen":4735,"Ġhassas":4736,"Ġdernek":4737,"ĠhayatÄ±":4738,"ĠaÃ§Ä±klamalar":4739,"$$son":4740,"ĠÃ¼yeleri":4741,"Ġbekl":4742,"Ġiktidar":4743,"$$sem":4744,"Ġkurumu":4745,"ĠÃ§alÄ±ÅŁtÄ±r":4746,"Ġuzat":4747,"$$nik":4748,"$$iyiz":4749,"Ġtayyip":4750,"ĠÃ¼lkemizde":4751,"$$eceÄŁimiz":4752,"Ġvol":4753,"$$isiniz":4754,"Ġkonfer":4755,"$$Ä±klÄ±":4756,"ĠÃ¶rgÃ¼tÃ¼":4757,"ĠarkadaÅŁlar":4758,"ĠtaÅŁÄ±yan":4759,"$$okul":4760,"Ġdurdur":4761,"Ġyetkili":4762,"ĠkaÃ§Ä±r":4763,"ĠolduklarÄ±":4764,"ĠvermiÅŁ":4765,"ĠyaÅŁamak":4766,"$$encer":4767,"ĠkÄ±lÄ±Ã§":4768,"Ġzorunlu":4769,"....":4770,"Ġkuma":4771,"Ġcas":4772,"ĠolmalÄ±":4773,"Ġmuhal":4774,"Ġ[âĢ¦]":4775,"Ġmetal":4776,"$$lamalar":4777,"Ġeuro":4778,"$$ator":4779,"ad":4780,"Ġmikro":4781,"Ġdikkate":4782,"$$iÅŁehir":4783,"tek":4784,"Ġsi":4785,"Ġuyum":4786,"Ġ''":4787,"ĠmuhteÅŁem":4788,"Ġaktiv":4789,"ĠihtiyacÄ±":4790,"ĠcumhurbaÅŁkan":4791,"Ġkimlik":4792,"Ġkriz":4793,"ĠÃ§Ä±kart":4794,"?âĢĿ":4795,"ĠsavaÅŁÄ±":4796,"$$lanmÄ±ÅŁtÄ±r":4797,"Ġbulundur":4798,"ĠÅŁube":4799,"Ġistedik":4800,"Ġevden":4801,"$$luluÄŁu":4802,"Ġburaya":4803,"$$Ä±rlar":4804,"Ġsorgu":4805,"Ġihracat":4806,"Ġedebilir":4807,"Ġ80":4808,"ĠÃ¶ÄŁrencilerin":4809,"$$day":4810,"$$okulu":4811,"ĠsÃ¼n":4812,"100":4813,"ĠiÃ§indeki":4814,"ĠcoÄŁraf":4815,"ĠamaÃ§lÄ±":4816,"$$kÄ±rÄ±":4817,"Ġpkk":4818,"ĠdeÄŁerlendirme":4819,"$$eral":4820,"Ġnih":4821,"Ġbirbirinden":4822,"Ġfransa":4823,"Ġkoor":4824,"ĠbÃ¶yl":4825,"$$his":4826,"Ġvs":4827,"$$ane":4828,"Ġbedel":4829,"Ġhekim":4830,"Ġkral":4831,"ĠbugÃ¼ne":4832,"Ġmodeli":4833,"$$jen":4834,"$$embe":4835,"$$tÃ¼rk":4836,"Ġ36":4837,"ĠyumuÅŁ":4838,"$$diÄŁimiz":4839,"geÃ§":4840,"Ġmali":4841,"Ġdenet":4842,"ĠyÃ¶r":4843,"Ġiken":4844,"Ġmaden":4845,"Ġzamanlarda":4846,"Ġyenil":4847,"Ġdey":4848,"Ġtakv":4849,"kur":4850,"si":4851,"$$eÄŁe":4852,"Ġfabrik":4853,"Ġhab":4854,"Ġjo":4855,"Ġec":4856,"Ġsonuna":4857,"ĠyargÄ±":4858,"Ġfonksiyon":4859,"ĠpopÃ¼ler":4860,"ĠmÄ±sÄ±r":4861,"ĠaklÄ±":4862,"Ġkursu":4863,"Ġsanki":4864,"ĠbilinÃ§":4865,"$$leyici":4866,"nÃ¼n":4867,"ve":4868,"$$Ä±f":4869,"$$deniz":4870,"Ġihtim":4871,"ĠalÄ±ndÄ±":4872,"Ġyenilik":4873,"ĠfenerbahÃ§e":4874,"Ġyapabilir":4875,"$$amik":4876,"Ġsahib":4877,"$$larÄ±ndaki":4878,"$$ser":4879,"ĠulaÅŁabilirsiniz":4880,"ĠkÃ¶r":4881,"$$lal":4882,"$$her":4883,"$$liÄŁinin":4884,"Ġdemektir":4885,"ĠhalÄ±":4886,"ĠgÃ¶rÃ¼len":4887,"Ġhavuz":4888,"ĠkumaÅŁ":4889,"ĠhÃ¼cr":4890,"$$etiyle":4891,"$$mÄ±z":4892,"$$dÄ±ÄŁÄ±na":4893,"Ġbahset":4894,"$$sÄ±nda":4895,"Ġdonan":4896,"Ġsevgil":4897,"ĠkoÃ§":4898,"$$uluyor":4899,"ĠpiÅŁir":4900,"$$dek":4901,"$$indows":4902,"ĠteÅŁvik":4903,"$$lardaki":4904,"$$oyu":4905,"ĠyangÄ±n":4906,"ĠatÄ±":4907,"ĠyaÅŁay":4908,"Ġimal":4909,"ĠgÃ¶zlem":4910,"ĠedilmiÅŁtir":4911,"$$stit":4912,"ĠalÄ±nmasÄ±":4913,"$$atya":4914,"Ġbulunur":4915,"Ġidi":4916,"ĠaÃ§Ä±lan":4917,"$$anÄ±z":4918,"Ġsiteleri":4919,"Ġterk":4920,"Ġtehdit":4921,"Ġrob":4922,"ĠinsanlarÄ±":4923,"$$Ä±lÄ±p":4924,"$$imizden":4925,"Ġburadan":4926,"$$alarÄ±ndan":4927,"Ġrefer":4928,"$$ple":4929,"ĠgÃ¶zalt":4930,"Ġlo":4931,"Ġmetre":4932,"ĠkavuÅŁ":4933,"ĠbÃ¼yÃ¼m":4934,"Ġkalma":4935,"Ġlok":4936,"Ġaraba":4937,"ĠgÃ¶ÄŁ":4938,"$$inda":4939,"Ġerz":4940,"Ġkullanmak":4941,"ĠhÄ±zla":4942,"$$Ä±lÄ±k":4943,"$$uyucu":4944,"Ġyolcu":4945,"$$esef":4946,"$$iner":4947,"$$leÅŁme":4948,"$$arlar":4949,"Ġsakin":4950,"ĠÃ§eki":4951,"$$adet":4952,"$$roid":4953,"$$arya":4954,"Ġsebebi":4955,"Ġakl":4956,"yaz":4957,"Ġâ":4958,"$$gre":4959,"ĠgÃ¼venliÄŁi":4960,"Ġdip":4961,"ĠkÄ±sÄ±m":4962,"$$tadÄ±r":4963,"$$fe":4964,"Ġtarihleri":4965,"ĠkÃ¶pek":4966,"$$rom":4967,"Ġdini":4968,"Ġye":4969,"Ġyedek":4970,"Ġalmaya":4971,"$$duÄŁumuz":4972,"ĠfaktÃ¶r":4973,"$$Ã¼lebilir":4974,"yap":4975,"po":4976,"Ġkendilerini":4977,"$$ock":4978,"$$liy":4979,"$$lev":4980,"Ġvir":4981,"sen":4982,"ĠkartÄ±":4983,"Ġunsur":4984,"$$utu":4985,"Ġilgilen":4986,"Ġkayded":4987,"ĠmÃ¼r":4988,"ĠdemiÅŁ":4989,"$$yada":4990,"Ġismi":4991,"ĠkÃ¼ltÃ¼rel":4992,"Ġkanser":4993,"Ġyapabilirsiniz":4994,"Ġsertif":4995,"ĠendiÅŁ":4996,"Ġfu":4997,"Ġ70":4998,"ĠkaÄŁÄ±t":4999,"Ġplak":5000,"Ġramazan":5001,"Ġsigorta":5002,"$$ebiliyor":5003,"Ġkaran":5004,"$$ikat":5005,"$$land":5006,"Ġdepr":5007,"$$rama":5008,"ĠulaÅŁtÄ±r":5009,"Ġdiyet":5010,"ĠsaÄŁlÄ±yor":5011,"$$usuna":5012,"Ġkiralama":5013,"Ġindirim":5014,"ĠÅŁaÅŁÄ±r":5015,"av":5016,"$$manÄ±zÄ±":5017,"Ġmakam":5018,"Ġsinir":5019,"Ġekonomi":5020,"ĠiÅŁin":5021,"ĠmÃ¼n":5022,"Ġhavalim":5023,"Ġetkilen":5024,"ĠdÃ¼ÅŁtÃ¼":5025,"Ġaltyap":5026,"ĠÅŁirketi":5027,"ĠalbÃ¼m":5028,"$$arbak":5029,"Ġnefes":5030,"Ġalg":5031,"ĠhÃ¼seyin":5032,"Ġfutbolcu":5033,"$$kÄ±n":5034,"ĠyÃ¼":5035,"Ġondan":5036,"ĠfirmamÄ±z":5037,"$$gili":5038,"ĠimkanÄ±":5039,"Ġkoltuk":5040,"Ġkimi":5041,"$$tuÄŁ":5042,"ĠmÃ¼dÃ¼rlÃ¼ÄŁ":5043,"Ġdarbe":5044,"ĠyÃ¼rÃ¼yÃ¼ÅŁ":5045,"Ġesnaf":5046,"Ġetki":5047,"Ġbenzeri":5048,"ĠoÄŁlu":5049,"$$Ä±sÄ±nÄ±z":5050,"$$ht":5051,"$$lerimizin":5052,"$$akkale":5053,"ĠdirektÃ¶r":5054,"cum":5055,"Ġfaydalan":5056,"ĠparÃ§asÄ±":5057,"$$gah":5058,"$$va":5059,"ĠkarÅŁÄ±lÄ±k":5060,"Ġklasik":5061,"ĠayakkabÄ±":5062,"Ġsendik":5063,"Ġherkese":5064,"ĠettiÄŁini":5065,"ĠÃ¶mer":5066,"top":5067,"Ġkonuk":5068,"Ġsevin":5069,"ĠolacaÄŁÄ±nÄ±":5070,"ĠaraÅŁtÄ±rmalar":5071,"Ġitibariyle":5072,"Ġbesin":5073,"$$....":5074,"Ġkoordin":5075,"$$ciler":5076,"$$abilm":5077,"ĠyÃ¼zey":5078,"ĠmaaÅŁ":5079,"Ġbirer":5080,"Ġincelem":5081,"Ġbanka":5082,"Ġzaf":5083,"$$isa":5084,"Ġgazetec":5085,"ĠâĢĿ":5086,"ĠgÃ¶rÃ¼nÃ¼m":5087,"$$larca":5088,"ĠolmalÄ±dÄ±r":5089,"Ġert":5090,"$$tanÄ±n":5091,"eÄŁer":5092,"ĠkÃ¢":5093,"Ġselam":5094,"Ġbez":5095,"ĠyarÄ±n":5096,"ĠkÃ¼resel":5097,"ĠsÃ¶ylen":5098,"ĠgeÃ§ici":5099,"Ġkapan":5100,"$$red":5101,"ĠolaÄŁan":5102,"ĠpaylaÅŁÄ±m":5103,"$$miyorum":5104,"ĠyaÅŁadÄ±ÄŁÄ±":5105,"Ġmic":5106,"Ġmate":5107,"Ġvitam":5108,"$$sÄ±nÄ±":5109,"ĠÃ¼s":5110,"21":5111,"Ġediliyor":5112,"$$ula":5113,"ĠsÃ¼ren":5114,"Ġcon":5115,"Ġdurumlarda":5116,"Ġamac":5117,"Ġyedi":5118,"$$ice":5119,"ĠilÃ§e":5120,"ĠkayÄ±p":5121,"Ġmalzeme":5122,"Ġtedbir":5123,"Ġtepki":5124,"Ġnem":5125,"$$adeniz":5126,"ĠbakÄ±mÄ±ndan":5127,"Ġgenelde":5128,"ĠkaynaÄŁÄ±":5129,"$$yasal":5130,"ĠistiyorsanÄ±z":5131,"Ġmevzu":5132,"Ġfinal":5133,"Ġanahtar":5134,"$$mos":5135,"Ġyur":5136,"$$ĠĠĠĠ":5137,"Ġonur":5138,"$$ilmez":5139,"$$so":5140,"Ġsevgi":5141,"ĠyapÄ±sÄ±":5142,"Ġdig":5143,"Ġ;":5144,"ĠsÃ¶zleri":5145,"ĠbirleÅŁtir":5146,"Ġbuyur":5147,"$$tak":5148,"Ġbununla":5149,"Ġ45":5150,"ama":5151,"Ġgazete":5152,"Ġavukat":5153,"Ġanlama":5154,"$$duklarÄ±":5155,"Ġkoru":5156,"allah":5157,"ĠgeÃ§er":5158,"ĠolmaktadÄ±r":5159,"Ġilave":5160,"net":5161,"Ġtakdirde":5162,"ï¿½ï¿½":5163,"ĠgeldiÄŁi":5164,"Ġjan":5165,"Ġjap":5166,"ĠtuÅŁ":5167,"$$kel":5168,"Ġmaddi":5169,"Ġnew":5170,"bel":5171,"Ġ32":5172,"Ġ90":5173,"Ġdilek":5174,"Ġaley":5175,"ĠeÅŁi":5176,"$$lamÄ±ÅŁ":5177,"Ġkargo":5178,"ĠkarÅŁÄ±laÅŁtÄ±r":5179,"$$tion":5180,"$$ebilmek":5181,"ĠdÃ¼ÄŁÃ¼n":5182,"$$ori":5183,"bak":5184,"ĠeÅŁya":5185,"Ġyeme":5186,"$$luluÄŁ":5187,"$$ly":5188,"$$lemeye":5189,"ĠfransÄ±z":5190,"$$eliÄŁi":5191,"ĠmÃ¼dah":5192,"Ġcami":5193,"Ġtap":5194,"Ġadeta":5195,"Ġligi":5196,"$$sÃ¶r":5197,"Ġkaps":5198,"ĠgÃ¶zaltÄ±na":5199,"$$usal":5200,"ĠyÃ¼rÃ¼r":5201,"ĠbiÃ§im":5202,"Ġtev":5203,"Ġkurban":5204,"ĠbaÅŁlangÄ±Ã§":5205,"ĠuÃ§uÅŁ":5206,"ĠtanÄ±n":5207,"ĠaÄŁz":5208,"$$anti":5209,"Ġgeleneksel":5210,"ĠrÃ¼z":5211,"Ġederken":5212,"$$bon":5213,"$$layabilirsiniz":5214,"ĠsÃ¶zleÅŁme":5215,"Ġvermeye":5216,"span":5217,"Ġfuar":5218,"es":5219,"$$rag":5220,"ĠdaÄŁÄ±t":5221,"ĠpaÅŁa":5222,"$$ese":5223,"Ġest":5224,"$$istin":5225,"Ġyel":5226,"$$liliÄŁi":5227,"ĠkadÄ±nlarÄ±n":5228,"Ġmavi":5229,"ĠbÃ¼tÃ§":5230,"Ġkonferans":5231,"$$masyon":5232,"$$ilerde":5233,"Ġbeyan":5234,"$$ÄŁÄ±nÄ±":5235,"Ġlog":5236,"Ġithal":5237,"ĠiÅŁler":5238,"$$aseb":5239,"$$paÅŁa":5240,"Ġkolayca":5241,"Ġradyo":5242,"$$gesi":5243,"ĠÅŁehr":5244,"$$mediÄŁi":5245,"Ġhusus":5246,"Ġiyice":5247,"ĠtanrÄ±":5248,"Ġmaddesi":5249,"2016":5250,"ĠzamanÄ±":5251,"$$arbakÄ±r":5252,"Ġtun":5253,"Ġ196":5254,"$$makla":5255,"Ġ300":5256,"ĠkadÄ±nÄ±n":5257,"$$itter":5258,"ĠkulÃ¼p":5259,"ĠyarÄ±m":5260,"Ġfelse":5261,"$$iki":5262,"Ġverilir":5263,"Ġbirini":5264,"$$mÃ¼ÅŁtÃ¼r":5265,"$$Ã¼lmesi":5266,"$$tansiy":5267,"kir":5268,"ĠdÃ¶nÃ¼ÅŁÃ¼m":5269,"$$kur":5270,"$$biy":5271,"Ġmesela":5272,"ĠiliÅŁki":5273,"Ġsevk":5274,"Ġantr":5275,"Ġrehber":5276,"hal":5277,"let":5278,"Ġhediy":5279,"Ġserg":5280,"$$uyoruz":5281,"$$pa":5282,"Ġiade":5283,"Ġyurtd":5284,"ĠÃ§Ã¶":5285,"Ġvah":5286,"Ġcerrah":5287,"ĠuÄŁur":5288,"Ġtoplan":5289,"ĠkÃ¶yÃ¼":5290,"Ġsinema":5291,"Ġdevrim":5292,"$$tÄ±cÄ±":5293,"$$urk":5294,"$$melik":5295,"ĠaldÄ±m":5296,"Ġgelip":5297,"Ġistiyoruz":5298,"ĠtaÅŁÄ±m":5299,"ĠaÅŁa":5300,"ĠplanÄ±":5301,"Ġkaydetti":5302,"ĠÃ§aÄŁr":5303,"ĠvarlÄ±k":5304,"ĠiÅŁÃ§i":5305,"$$mesinde":5306,"$$antep":5307,"Ġmini":5308,"$$ond":5309,"$$memiz":5310,"Ġenstit":5311,"ĠyaÄŁmur":5312,"Ġlan":5313,"Ġkred":5314,"Ġboyu":5315,"$$adi":5316,"Ġsunan":5317,"ĠÃ§ekti":5318,"Ġprens":5319,"Ġdava":5320,"Ġnoktada":5321,"$$ry":5322,"Ġekipleri":5323,"Ġpotansiy":5324,"Ġhel":5325,"Ġortamda":5326,"$$ord":5327,"$$ever":5328,"Ġsorunun":5329,"$$acÄ±lÄ±k":5330,"$$Ä±lmasÄ±na":5331,"ĠyaptÄ±klarÄ±":5332,"ĠulaÅŁÄ±m":5333,"ĠhalkÄ±n":5334,"Ġdili":5335,"$$ary":5336,"Ġkere":5337,"ĠaÃ§ma":5338,"$$uc":5339,"ĠÃ¶nÃ¼mÃ¼zdeki":5340,"at":5341,"siz":5342,"Ġvermektedir":5343,"ĠeriÅŁim":5344,"Ġdevleti":5345,"ĠgerekÃ§":5346,"$$dip":5347,"Ġufak":5348,"Ġhissed":5349,"23":5350,"Ġmuhammed":5351,"$$layacak":5352,"$$Ã¼leyman":5353,"cumhur":5354,"Ġge":5355,"ĠolduÄŁunuz":5356,"Ġdevletin":5357,"san":5358,"ĠsÃ¼rÃ¼cÃ¼":5359,"bugÃ¼n":5360,"Ġyoluyla":5361,"ĠbazÄ±larÄ±":5362,"ĠdÃ¼zelt":5363,"ĠyÄ±lÄ±ndan":5364,"$$tÄ±n":5365,"Ġyenilen":5366,"ĠbabasÄ±":5367,"Ġlisesi":5368,"ĠilginÃ§":5369,"$$adir":5370,"Ġyerler":5371,"Ġevren":5372,"Ġturk":5373,"ĠÃ¼retimi":5374,"Ġfiziksel":5375,"ĠyaklaÅŁÄ±m":5376,"$$seri":5377,"Ġbonus":5378,"$$des":5379,"ĠadayÄ±":5380,"ĠyÃ¶netmeli":5381,"$$ayacak":5382,"Ġkalem":5383,"$$deri":5384,"ĠseÃ§en":5385,"Ġklima":5386,"Ġevlilik":5387,"ĠkiralÄ±k":5388,"$$abileceÄŁi":5389,"$$yaj":5390,"Ġani":5391,"$$mamasÄ±":5392,"Ġalanlar":5393,"mar":5394,"Ġmit":5395,"Ġpratik":5396,"$$Ä±ÄŁÄ±":5397,"ĠgÃ¼mÃ¼ÅŁ":5398,"ĠkahvaltÄ±":5399,"Ġmakal":5400,"ĠyayÄ±nlanan":5401,"ĠuyarÄ±":5402,"ĠsorunlarÄ±":5403,"Ġbeklent":5404,"ĠgÃ¶revi":5405,"$$aÄŁÄ±n":5406,"Ġlink":5407,"ĠÃ¼stÃ¼ne":5408,"ĠgÃ¶sterir":5409,"$$otik":5410,"$$bor":5411,"$$ayÄ±m":5412,"$$Ä±lmasÄ±nÄ±":5413,"ĠÅŁÃ¼k":5414,"Ġkullanan":5415,"05":5416,"Ġistanbul":5417,"Ġtaban":5418,"Ġtutan":5419,"ĠgÃ¼Ã§lendir":5420,"Ġkalb":5421,"Ġzira":5422,"Ġkilomet":5423,"ĠinanÄ±yor":5424,"Ġbilgisi":5425,"$$mesiyle":5426,"Ġbirinin":5427,"Ġpetrol":5428,"Ġbilet":5429,"ĠgÃ¼nÃ¼n":5430,"ĠkÃ¶t":5431,"ĠkulÃ¼bÃ¼":5432,"Ġbahar":5433,"$$vel":5434,"ĠgeliÅŁmeler":5435,"Ġalak":5436,"ĠyÃ¼zÃ¼nden":5437,"doÄŁ":5438,"$$bey":5439,"Ġkullanma":5440,"Ġ2009":5441,"Ġedilecek":5442,"Ġbunlardan":5443,"ĠistediÄŁi":5444,"$$cÄ±k":5445,"Ġacaba":5446,"ĠgÃ¶steriyor":5447,"$$eceÄŁim":5448,"ĠolasÄ±":5449,"kon":5450,"Ġgenelinde":5451,"Ġwindows":5452,"Ġur":5453,"$$abilen":5454,"$$masÄ±n":5455,"$$21":5456,"Ġniyet":5457,"$$olog":5458,"ĠboÄŁaz":5459,"Ġrum":5460,"ĠaÃ§Ä±dan":5461,"ĠgÃ¶rÃ¼ÅŁmeler":5462,"$$imden":5463,"$$ft":5464,"ĠÃ§aÄŁÄ±r":5465,"01":5466,"$$oto":5467,"Ġsekret":5468,"Ġkonser":5469,"Ġkarab":5470,"$$lÄ±dÄ±r":5471,"ĠarÅŁ":5472,"Ġandroid":5473,"ĠÄ±ÅŁÄ±":5474,"ĠdÃ¼ÅŁen":5475,"$$demir":5476,"$$Ã§uk":5477,"ĠkonuÅŁan":5478,"$$ko":5479,"Ġisterseniz":5480,"Ġderi":5481,"Ġtedavisi":5482,"Ġmanz":5483,"$$ebiliriz":5484,"Ġmhp":5485,"$$iyel":5486,"$$kaya":5487,"$$hum":5488,"Ġney":5489,"ĠatÄ±k":5490,"ĠtÃ¼rÃ¼":5491,"Ġkel":5492,"$$amÄ±yor":5493,"Ġyerden":5494,"mal":5495,"Ġsermaye":5496,"Ġbirbirine":5497,"ĠoranÄ±nda":5498,"ĠyaÅŁadÄ±ÄŁ":5499,"$$lerken":5500,"Ġtepk":5501,"$$ex":5502,"$$rÃ¼k":5503,"$$log":5504,"$$ÅŁÄ±":5505,"ĠfaydalÄ±":5506,"ĠalÄ±nÄ±r":5507,"Ġseyir":5508,"Ġmutluluk":5509,"Ġgalib":5510,"Ġkeyifli":5511,"ĠmaÃ§Ä±":5512,"Ġsebebiyle":5513,"Ġrej":5514,"$$lor":5515,"Ġkimyasal":5516,"$$otel":5517,"ĠuygulamalarÄ±":5518,"ĠsanÄ±rÄ±m":5519,"ĠrÃ¼":5520,"$$ity":5521,"Ġrezerv":5522,"$$sÄ±na":5523,"$$ysa":5524,"Ġast":5525,"Ġbilgiye":5526,"ĠÃ§aÄŁrÄ±":5527,"Ġhapis":5528,"ĠyÃ¼kÃ¼m":5529,"ĠgÃ¼z":5530,"$$eceksiniz":5531,"Ġokulu":5532,"abd":5533,"$$ull":5534,"$$imler":5535,"Ġwww":5536,"$$ruf":5537,"Ġemir":5538,"Ġii":5539,"Ġbelirlenen":5540,"$$Ã½r":5541,"nÄ±":5542,"Ġpazarlama":5543,"Ġbayrak":5544,"Ġmezar":5545,"$$nan":5546,"Ġnesil":5547,"ĠanÄ±":5548,"Ġmalzemeleri":5549,"ĠbÃ¼nyesinde":5550,"$$Ä±lmaktadÄ±r":5551,"Ġkongr":5552,"ĠfirmasÄ±":5553,"Ġsergil":5554,"Ġtipi":5555,"ĠÃ§ocuÄŁun":5556,"$$amaya":5557,"ĠalanlarÄ±":5558,"ĠgÃ¶rÃ¼r":5559,"ĠbÄ±":5560,"$$irim":5561,"Ġekibi":5562,"Ġbulabilirsiniz":5563,"Ġnik":5564,"ĠbÃ¶lÃ¼mÃ¼nde":5565,"Ġprote":5566,"Ġran":5567,"ĠgereÄŁi":5568,"Ġideal":5569,"Ġanayasa":5570,"$$23":5571,"Ġbireysel":5572,"$$ahh":5573,"ĠdoÃ§":5574,"Ġettim":5575,"$$uf":5576,"ĠkatÄ±":5577,"Ġhoca":5578,"$$alesef":5579,"ĠimkÃ¢n":5580,"Ġizlen":5581,"ĠyanÄ±na":5582,"$$Ä±ÄŁ":5583,"Ġhalen":5584,"$$ilerle":5585,"ĠmÃ¼dahale":5586,"nÅŁaat":5587,"Ġkaradeniz":5588,"$$Ã¼yÃ¼k":5589,"ĠsÄ±vÄ±":5590,"$$itir":5591,"Ġ2008":5592,"$$yalÄ±":5593,"Ġmakinesi":5594,"$$Ä±ldÄ±ÄŁÄ±nda":5595,"ĠteÅŁekkÃ¼rler":5596,"ĠsektÃ¶rÃ¼nde":5597,"Ġbeyin":5598,"$$ump":5599,"Ġcins":5600,"$$tacak":5601,"ĠaralarÄ±nda":5602,"Ġpanel":5603,"$$lÄ±kta":5604,"ĠkarÅŁÄ±lan":5605,"Ġcom":5606,"ĠetmiÅŁtir":5607,"âĢĵ":5608,".'":5609,"ĠhÃ¼r":5610,"Ġegz":5611,"Ġrahmet":5612,"Ġkorku":5613,"Ġamerikan":5614,"Ġraporu":5615,"gel":5616,"Ġtaraftar":5617,"Ġmm":5618,"$$fat":5619,"Ġuyku":5620,"$$lerimize":5621,"Ġyiyecek":5622,"ĠfetÃ¶":5623,"Ġrakip":5624,"ÅŁim":5625,"ankara":5626,"Ġhadis":5627,"$$tÄ±ÄŁÄ±mÄ±z":5628,"ĠÄ±r":5629,"Ġbiridir":5630,"Ġbina":5631,"ĠsÃ¶":5632,"ĠgeliÅŁtirme":5633,"Ġdenk":5634,"$$Ä£":5635,"$$enizi":5636,"$$sup":5637,"Ġbeslenme":5638,"ĠbÃ¼yÃ¼":5639,"ĠbaÅŁlayacak":5640,"ĠbaÄŁÄ±r":5641,"$$ilerinden":5642,"$$les":5643,"ĠesnasÄ±nda":5644,"Ġjandar":5645,"$$alandÄ±r":5646,"Ġanlatan":5647,"Ġverim":5648,"ĠfazlasÄ±":5649,"ĠinsanÄ±":5650,"ĠanlamÄ±":5651,"$$landa":5652,"$$alarla":5653,"$$kon":5654,"Ġgazetesi":5655,"$$Ã¼lÃ¼k":5656,"ĠkalÄ±cÄ±":5657,"Ġadresi":5658,"ĠÅŁeri":5659,"Ġinsanlara":5660,"$$mis":5661,"Ġmuay":5662,"Ġbulmak":5663,"$$har":5664,"ĠyÃ¶ntemi":5665,"$$melidir":5666,"$$isyen":5667,"ĠgÃ¼nler":5668,"ĠsÃ¼leyman":5669,"$$layabilir":5670,"Ġmakyaj":5671,"dar":5672,"Ġgidip":5673,"Ġsayede":5674,"$$veren":5675,"22":5676,"Ġ33":5677,"bey":5678,"Ġmevcuttur":5679,"sev":5680,"$$ilmesini":5681,"Ġmatematik":5682,"ĠkomÅŁ":5683,"Ġvatan":5684,"$$80":5685,"Ġiphone":5686,"ayrÄ±":5687,"Ġtelefonu":5688,"ĠnumaralÄ±":5689,"ĠuzmanÄ±":5690,"yÄ±l":5691,"ĠiÅŁbirliÄŁi":5692,"ĠaykÄ±rÄ±":5693,"Ġsever":5694,"$$yi":5695,"ĠgÃ¶rdÃ¼k":5696,"$$ÅŁap":5697,"$$**":5698,"Ġgaranti":5699,"Ġyolda":5700,"$$ho":5701,"$$lk":5702,"Ġbeklem":5703,"ÄŁ":5704,"ĠalÄ±narak":5705,"Ġdans":5706,"ĠmÃ¼st":5707,"ĠÃ¶nde":5708,"$$liye":5709,"Ġhali":5710,"$$gat":5711,"2015":5712,"ĠbÃ¼l":5713,"Ġemekli":5714,"$$ebek":5715,"ĠkÄ±v":5716,"Ġdarb":5717,"$$ment":5718,"$$po":5719,"Ġgerekti":5720,"Ġmesleki":5721,"$$ograf":5722,"Ġmuhab":5723,"Ġverilmesi":5724,"ĠkazanÃ§":5725,"tar":5726,"ĠgeliÅŁmiÅŁ":5727,"ĠyapÄ±n":5728,"ĠiÅŁleri":5729,"ĠkarÅŁÄ±ya":5730,"$$meyecek":5731,"$$gÃ¼":5732,"$$ack":5733,"$$Ã¼ldÃ¼":5734,"ĠdeÄŁin":5735,"Ġbilen":5736,"ĠyÃ¶netmelik":5737,"uz":5738,"ĠÃ¼stelik":5739,"$$eya":5740,"ĠkalmÄ±ÅŁ":5741,"Ġbulan":5742,"Ġistif":5743,"Ġtasarruf":5744,"ĠÃ§am":5745,"ĠsonuÃ§lar":5746,"ĠsÃ¶zc":5747,"Ġedilebilir":5748,"ĠkanÄ±t":5749,"ok":5750,"ĠalÄ±nacak":5751,"Ġtamamlan":5752,":)":5753,"199":5754,"etik":5755,"Ġyumur":5756,"ĠÃ§anakkale":5757,"Ġmasa":5758,"Ġgidiyor":5759,"ĠaÄŁÄ±z":5760,"$$iyo":5761,"$$bek":5762,"ĠgerektiÄŁi":5763,"ĠbaÄŁÄ±ÅŁ":5764,"$$Ä±lacaÄŁÄ±":5765,"Ġfalan":5766,"Ġantren":5767,"dir":5768,"ĠtoplantÄ±sÄ±":5769,"$$tiÄŁimiz":5770,"$$usuz":5771,"ĠgÃ¶m":5772,"$$madÄ±ÄŁÄ±":5773,"$$sÄ±zÄ±n":5774,"ĠbarÄ±ndÄ±r":5775,"$$medik":5776,"Ġistihdam":5777,"$$illa":5778,"Ġzirv":5779,"ÅŁleri":5780,"Ġsalonu":5781,"Ġkiral":5782,"$$pres":5783,"Ġdemokratik":5784,"$$gs":5785,"Ġmeyve":5786,"Ġmemlek":5787,"ĠkaÃ§Ä±n":5788,"ĠkÄ±ymet":5789,"$$ansiyon":5790,"$$ener":5791,"ĠhÃ¼km":5792,"Ġmersin":5793,"Ġgitmek":5794,"ĠolduklarÄ±nÄ±":5795,"ĠhayÄ±rlÄ±":5796,"Ġbisiklet":5797,"Ġvererek":5798,"ĠeÄŁlenceli":5799,"$$lÃ¼ÄŁe":5800,"Ġuyumlu":5801,"Ġderg":5802,"Ġyerlerde":5803,"Ġbanyo":5804,"Ġerkekler":5805,"$$dÄ±ÄŁÄ±ndan":5806,"Ġevi":5807,"ĠyÃ¼kselt":5808,"Ġme":5809,"$$amÄ±ÅŁ":5810,"$$bat":5811,"ĠgÃ¶sterdi":5812,"ĠadlandÄ±r":5813,"Ġgarant":5814,"Ġbizler":5815,"Ġyetenek":5816,"$$eyerek":5817,"Ġmaz":5818,"letiÅŁim":5819,"Ġkalab":5820,"ĠyÃ¶netmen":5821,"ĠkÄ±rÄ±k":5822,"$$leyerek":5823,"Ġkamera":5824,"Ġolmayacak":5825,"$$ildiÄŁini":5826,"ĠaracÄ±lÄ±ÄŁÄ±yla":5827,"merhaba":5828,"ĠÃ§Ä±kacak":5829,"Ġkomutan":5830,"$$tÄ±klarÄ±":5831,"ĠyakÄ±ndan":5832,"gÃ¶r":5833,"ĠÃ§ik":5834,"ĠgÃ¼ndeme":5835,"$$duÄŁunuz":5836,"ĠyÄ±llardÄ±r":5837,"ĠkaÃ§ak":5838,"Ġtrabzon":5839,"Ġzemin":5840,"ĠyukarÄ±da":5841,"$$emeyen":5842,"$$ektif":5843,"Ġekmek":5844,"$$tc":5845,"Ġhizmetler":5846,"Ġduruma":5847,"Ġkilit":5848,"Ġdedik":5849,"ĠbayramÄ±":5850,"$$diklerini":5851,"ĠbileÅŁ":5852,"Ġtarifi":5853,"Ġhata":5854,"Ġmontaj":5855,"Ġkimsenin":5856,"ĠvakfÄ±":5857,"Ġsizleri":5858,"ĠÅŁunlarÄ±":5859,"ĠedildiÄŁi":5860,"Ġkenar":5861,"ĠolacaÄŁÄ±":5862,"smail":5863,"ĠyaÅŁadÄ±k":5864,"Ġhil":5865,"ĠdÃ¼ÅŁÃ¼nce":5866,"Ġsad":5867,"Ġokur":5868,"Ġkonfor":5869,"Ġyolunda":5870,"ĠyoÄŁ":5871,"$$los":5872,"$$ray":5873,"ĠkatÄ±lÄ±mcÄ±":5874,"ĠbaÄŁlan":5875,"ĠdoÄŁa":5876,"Ġasya":5877,"ĠsÄ±kÄ±":5878,"$$duÄŁum":5879,"ĠÃ¶ncesinde":5880,"Ġoyunlar":5881,"ĠÃ¶zgÃ¼rlÃ¼k":5882,"Ġkodu":5883,"ĠgeleceÄŁ":5884,"Ġsporcu":5885,"$$atistik":5886,"ĠiliÅŁkiler":5887,"Ġrekabet":5888,"Ġmilletvekil":5889,"$$mÃ¼yor":5890,"Ġhisse":5891,"aÃ§":5892,"ĠkalÄ±r":5893,"ĠÃ¶lÃ§Ã¼de":5894,"$$lÃ¢m":5895,"Ġmalatya":5896,"Ġcumartesi":5897,"Ġcenaz":5898,"$$dy":5899,"kad":5900,"Ġakdeniz":5901,"Ġseviye":5902,"Ġyoktu":5903,"$$okol":5904,"evet":5905,"$$tÄ±lar":5906,"Ġsevgili":5907,"ĠhastalÄ±ÄŁÄ±":5908,"ĠÃ§ocuklarÄ±":5909,"Ġ34":5910,"Ġzinc":5911,"ĠsÄ±fÄ±r":5912,"ĠdiyarbakÄ±r":5913,"Ã¶r":5914,"Ġkonularda":5915,"Ġvel":5916,"sv":5917,"Ġmuhaf":5918,"40":5919,"ĠkolaylaÅŁtÄ±r":5920,"ĠgÃ¶ÄŁÃ¼s":5921,"ĠdÃ¼k":5922,"Ġelinde":5923,"Ġkoz":5924,"Ġparmak":5925,"$$kÄ±r":5926,"Ġkendimi":5927,"$$ris":5928,"$$ilmesine":5929,"$$Ã¼tÃ¼n":5930,"$$diniz":5931,"$$lerindeki":5932,"Ġdemokrasi":5933,"Ġseri":5934,"ĠendÃ¼str":5935,"$$itesi":5936,"ĠyapÄ±ldÄ±ÄŁÄ±":5937,"ĠÅŁahin":5938,"$$ilip":5939,"$$ledim":5940,"Ġpir":5941,"ĠÅŁa":5942,"!âĢĿ":5943,"Ġedilmektedir":5944,"Ġkorumak":5945,"ĠÃ¶rt":5946,"Ġmaruz":5947,"ĠayrÄ±l":5948,"Ġantik":5949,"Ġoynay":5950,"Ġkahve":5951,"$$rop":5952,"Ġmaalesef":5953,"Ã§ocuk":5954,"ayrÄ±ca":5955,"ĠÃ¼creti":5956,"$$dev":5957,"Ġsaray":5958,"ey":5959,"Ġbasket":5960,"kal":5961,"Ġtoplumun":5962,"Ġhip":5963,"$$var":5964,"ĠolmadÄ±":5965,"Ġhasar":5966,"ĠtÃ¼ketim":5967,"tÃ¼m":5968,"ĠyaratÄ±cÄ±":5969,"$$lerdi":5970,"ĠkÃ¼tÃ¼p":5971,"$$mekteyiz":5972,"ĠcezasÄ±":5973,"Ġris":5974,"Ġtanesi":5975,"ĠahÅŁap":5976,"$$dÃ¼ÄŁÃ¼nÃ¼":5977,"$$alÄ±ÄŁÄ±":5978,"Ġseven":5979,"Ġgayet":5980,"ĠÃ¼lkeler":5981,"$$asÄ±ndaki":5982,"Ġfestival":5983,"Ġmuhtem":5984,"Ġakademik":5985,"ĠnoktasÄ±":5986,"Ġkelime":5987,"www":5988,"ĠgÃ¼ne":5989,"$$000":5990,"ĠkÄ±yafet":5991,"Ġsunulan":5992,"Ġdosya":5993,"Ġkazanan":5994,"Ġmakine":5995,"Ġbahsed":5996,"$$mr":5997,"Ġdisip":5998,"$$Ã£":5999,"Ġbelirtildi":6000,"Ġakr":6001,"ĠdÃ¼zenleme":6002,"$$parator":6003,"Ġmerkezinde":6004,"ĠdalÄ±":6005,"$$uluÄŁ":6006,"Ġoldum":6007,"ĠbaÅŁlÄ±klÄ±":6008,"Ġgaziantep":6009,"Ġturn":6010,"Ġhaberler":6011,"$$usuf":6012,"ĠcoÅŁ":6013,"Ġverg":6014,"ĠÅŁeyin":6015,"ĠgerÃ§ekleÅŁen":6016,"$$ette":6017,"Ġverme":6018,"Ġkarma":6019,"Ġartan":6020,"$$satÄ±":6021,"bÃ¶l":6022,"$$Ã¢y":6023,"Ġyolculuk":6024,"ĠÅŁimd":6025,"\",":6026,"ĠhemÅŁ":6027,"Ġdakikada":6028,"ĠmaÄŁdur":6029,"ĠkÄ±sÄ±":6030,"$$rat":6031,"ĠyÃ¶nÃ¼nde":6032,"$$yol":6033,"Ġyitir":6034,"Ġsunul":6035,"ĠÃ¼stÃ¼nde":6036,"Ġhayran":6037,"$$30":6038,"ĠyazÄ±k":6039,"mam":6040,"Ġifadelerini":6041,"ĠÃ¶ncelik":6042,"Ġmeyv":6043,".âĢĻ":6044,"ĠnumarasÄ±":6045,"Ġsom":6046,"ĠyapmanÄ±z":6047,"Ġmahalle":6048,"Ġgayret":6049,"Ġmeclisi":6050,"Ġverimli":6051,"Ġgetirmek":6052,"$$mut":6053,"$$Ã¼ye":6054,"ĠdÃ¼zeyde":6055,"$$ff":6056,"Ġtb":6057,"Ġsm":6058,"Ġdeprem":6059,"ĠarÅŁiv":6060,"Ġusta":6061,"ĠgÃ¶rÃ¼nÃ¼yor":6062,"$$oft":6063,"ĠeskiÅŁehir":6064,"Ġpost":6065,"Ġtwitter":6066,"ten":6067,"ĠÃ§il":6068,"ĠÃ¶zgÃ¼":6069,"ĠdayalÄ±":6070,"$$Ä±yorlar":6071,"Ġkaya":6072,"ĠzamanÄ±nda":6073,"$$Ä±ÅŁÄ±n":6074,"Ġsigara":6075,"$$atÄ±n":6076,"$$menizi":6077,"Ġbulut":6078,"Ġoyunun":6079,"Ġsanal":6080,"ĠyaptÄ±ÄŁÄ±mÄ±z":6081,"Ġplastik":6082,"Ġege":6083,"Ġsorunlar":6084,"ĠgÃ¼mrÃ¼k":6085,"aÅŁ":6086,"Ġendek":6087,"Ġforum":6088,"Ġorganize":6089,"Ġakses":6090,"Ġbodr":6091,"$$ami":6092,"yar":6093,"$$stagram":6094,"Ġgurur":6095,"ĠcivarÄ±nda":6096,"ĠniÅŁ":6097,"ĠolmayÄ±":6098,".[":6099,"$$ediÄŁiniz":6100,"$$melerin":6101,"Ġkendinizi":6102,"ÅŁlem":6103,"sa":6104,"$$maktÄ±r":6105,"Ġkapak":6106,"ĠgÃ¼nden":6107,"$$Ä±yordu":6108,"$$amam":6109,"ĠyaptÄ±m":6110,"Ġincelen":6111,"Ġvi":6112,"Ġefend":6113,"veya":6114,"ĠdÃ¼ÅŁÃ¼nÃ¼l":6115,"$$zat":6116,"Ġnev":6117,"Ġtazmin":6118,"ĠrektÃ¶r":6119,"Ġegemen":6120,"Ġfinansal":6121,"Ġjandarma":6122,"Ġkitl":6123,"ĠyaÅŁar":6124,"Ġprojeler":6125,"ĠÃ§atÄ±ÅŁ":6126,"ĠÅŁifr":6127,"$$arik":6128,"su":6129,"Ġvali":6130,"Ġmensup":6131,"ĠÃ§alÄ±ÅŁmalarÄ±nÄ±":6132,"ĠhatÄ±rlat":6133,"Ġderecede":6134,"ĠÃ§Ä±kmÄ±ÅŁ":6135,"$$onun":6136,"ĠrÃ¶":6137,"Ġsof":6138,"ĠkullanÄ±lmasÄ±":6139,"Ġgecik":6140,"$$meyin":6141,"Ġoyunc":6142,"09":6143,"ĠanÄ±nda":6144,"$$usunun":6145,"$$Ð¾":6146,"ĠbÃ¼yÃ¼me":6147,"Ġkusur":6148,"ĠmÃ¼mkÃ¼ndÃ¼r":6149,"ĠdÃ¶viz":6150,"$$ert":6151,"$$cisi":6152,"Ġstat":6153,"Ġgerekse":6154,"ĠsÃ¶zÃ¼":6155,"Ġyaprak":6156,"Ġmahkemesi":6157,"Ġoynan":6158,"ĠÃ¶zet":6159,"âĢ¢":6160,"talya":6161,"Ġtamir":6162,"Ġgiyim":6163,"ĠsilahlÄ±":6164,"Ġsertifik":6165,"$$isiz":6166,"Ġyumurta":6167,"Ġarzu":6168,"Ġgrafik":6169,"Ġbodrum":6170,"Ġalkol":6171,"ĠhalkÄ±":6172,"$$imle":6173,"etiketler":6174,"Ġpah":6175,"ĠdayanÄ±klÄ±":6176,"$$Ä±sal":6177,"$$nÄ±":6178,"$$oo":6179,"ĠsÃ¼reli":6180,"Ġkariyer":6181,"Ġhayatta":6182,"Ġdalg":6183,"Ġparlak":6184,"ĠdevamÄ±":6185,"Ġkaymakam":6186,"Ġitiraz":6187,"$$ell":6188,"Ġporno":6189,"Ġmahkeme":6190,"Ġph":6191,"ĠterÃ¶rist":6192,"Ġzorluk":6193,"$$dava":6194,"$$gini":6195,"Ġbulama":6196,"ĠolduÄŁum":6197,"Ġprotokol":6198,"kay":6199,"$$maktayÄ±z":6200,"$$memek":6201,"Ġkaza":6202,"$$pe":6203,"ĠÅŁahÄ±s":6204,"Ġyetersiz":6205,"Ġapple":6206,"$$eter":6207,"ĠtÄ±b":6208,"Ġank":6209,"Ġrabb":6210,"$$asÄ±z":6211,"ĠyollarÄ±":6212,"ĠÃ¼yelik":6213,"Ġkomisyonu":6214,"$$eyn":6215,"Ġkaray":6216,"ĠaydÄ±nlat":6217,"Ġnetic":6218,"Ġna":6219,"ĠÃ§ey":6220,"ĠÅŁehrin":6221,"Ġmuk":6222,"Ġoysa":6223,"ĠtÃ¼ketic":6224,"Ġbileti":6225,"$$car":6226,"Ġyasa":6227,"Ġsunum":6228,"Ġharf":6229,"Ġlen":6230,"Ġsuretiyle":6231,"Ġri":6232,"ĠlÃ¼k":6233,"ĠhastalÄ±klarÄ±":6234,"ĠalÄ±ÅŁkan":6235,"ĠbaÅŁÄ±":6236,"$$yken":6237,"ĠÃ§ekil":6238,"ĠdonanÄ±m":6239,"$$sy":6240,"ĠyaÄŁÄ±":6241,"Ġpam":6242,"$$aza":6243,"ĠÃ§el":6244,"nce":6245,"ĠfarkÄ±":6246,"Ġbunlara":6247,"Ġevlen":6248,"Ġzamanlar":6249,"$$elle":6250,"ĠÃ§ekici":6251,"ĠÃ¼rÃ¼nlerin":6252,"ĠsÄ±rt":6253,"Ġcennet":6254,"Ġteor":6255,"Ġederiz":6256,"Ġtopr":6257,"Ġmat":6258,"$$ji":6259,"Ġolab":6260,"ĠseÃ§enekleri":6261,"Ġburs":6262,"ĠadamÄ±":6263,"Ġdikkatli":6264,"ĠalÄ±cÄ±":6265,"$$raÃ§":6266,"Ġtef":6267,"Ġkocaeli":6268,"Ġsahil":6269,"ĠbaÄŁÄ±mlÄ±":6270,"ĠiÅŁlev":6271,"Ġ..":6272,"ĠyapÄ±p":6273,"$$dÄ±lar":6274,"$$rip":6275,"Ġuzay":6276,"$$bank":6277,"$$landÄ±ÄŁÄ±":6278,"ĠkÄ±sÄ±t":6279,"ĠsÄ±z":6280,"ĠsÄ±nÄ±rlÄ±":6281,"Ġfull":6282,"$$lemesi":6283,"Ġbizlere":6284,"ĠÂ·":6285,"ĠÃ¶ÄŁrencileri":6286,"Ġmetrek":6287,"2014":6288,"ĠkullandÄ±ÄŁÄ±":6289,"ĠfarkÄ±nda":6290,"$$elerek":6291,"Ġbelge":6292,"$$paz":6293,"Ġlabor":6294,"ĠtÄ±kan":6295,"Ġyeten":6296,"ĠbaÅŁlamÄ±ÅŁ":6297,"ĠdÄ±ÅŁiÅŁleri":6298,"03":6299,"ĠsÃ¼redir":6300,"Ġplay":6301,"tak":6302,"Ġmesle":6303,"$$slan":6304,"ĠsÃ¼reÃ§te":6305,"26":6306,"ĠatÃ¶l":6307,"ĠhariÃ§":6308,"Ġbirinc":6309,"Ġuygulanan":6310,"$$tiy":6311,"$$hen":6312,"$$irin":6313,"ĠgÃ¼nleri":6314,"$$elendir":6315,"$$Ä±ldÄ±ÄŁÄ±nÄ±":6316,"Ġengelli":6317,"Ġgittik":6318,"ĠÃ§ekim":6319,"Ġahlak":6320,"ĠdÃ¼r":6321,"Ġbitki":6322,"Ġsessiz":6323,"ĠhaÅŁ":6324,"ĠgÃ¼nah":6325,"ĠsatÄ±lÄ±k":6326,"ĠbakÄ±mÄ±":6327,"bÃ¼yÃ¼k":6328,"ĠiÅŁgal":6329,"Ġafrika":6330,"$$sul":6331,"Ġolunca":6332,"27":6333,"Ġinc":6334,"Ġset":6335,"$$araj":6336,"Ġpsikolojik":6337,"Ġsaati":6338,"leri":6339,"Ġsizlerle":6340,"ĠyÄ±kama":6341,"saÄŁ":6342,"ĠfÄ±kr":6343,"Ġdamar":6344,"$$yiz":6345,"Ġkayseri":6346,"ĠkullanÄ±labilir":6347,"ancak":6348,"$$iti":6349,"Ġkud":6350,"Ġkuran":6351,"Ġtutul":6352,"genel":6353,"Ġabdullah":6354,"Ġarayan":6355,"Ġdiyebilir":6356,"Ġmuhaseb":6357,"$$Ã§isi":6358,"Ġtemas":6359,"lÄ±":6360,"$$iyetini":6361,"$$tuÄŁu":6362,"$$ÄŁla":6363,"$$mamak":6364,"ĠaltÄ±nÄ±":6365,"Ġalanlarda":6366,"$$Ä±lab":6367,"ĠnÃ¶":6368,"ĠsoruÅŁturma":6369,"Ġdekorasyon":6370,"28":6371,"ĠaÅŁama":6372,"Ġzafer":6373,"Ġbedava":6374,"Ġolabilirsiniz":6375,"ĠÃ¼stÃ¼":6376,"Ġaksesuar":6377,"Ġistis":6378,"Ġ2007":6379,"$$ceÄŁi":6380,"Ġtarihinden":6381,"ĠhaklÄ±":6382,"ĠÃ§ocuÄŁu":6383,"$$Ã¼rken":6384,"ĠyumuÅŁak":6385,"Ġente":6386,"ĠcÃ¼ml":6387,"02":6388,"ĠinanÃ§":6389,"Ġmiktarda":6390,"Ġkilis":6391,"Ġpazartesi":6392,"ĠÃ¶lÃ¼":6393,"Ġdola":6394,"ĠhatÄ±rla":6395,"$$Ã¶rÃ¼":6396,"29":6397,"$$alya":6398,"$$memesi":6399,"$$eydi":6400,"ĠkÄ±yas":6401,"Ġlam":6402,"$$uzu":6403,"Ġhi":6404,"ĠÃ§alÄ±ÅŁÄ±r":6405,"ĠbaÅŁlÄ±":6406,"Ġmevsim":6407,"$$fk":6408,"ĠmÃ¼dahal":6409,"Ġfestivali":6410,"ĠyÃ¶nel":6411,"Ġkullanabilirsiniz":6412,"yaÅŁ":6413,"Ġ55":6414,"Ġturist":6415,"$$likleri":6416,"ĠyapÄ±lÄ±yor":6417,"ĠvakÄ±f":6418,"$$balaj":6419,"Ġvic":6420,"ĠkÄ±zÄ±l":6421,"Ġ05":6422,"Ġailesi":6423,"ĠyÄ±lÄ±nÄ±n":6424,"Ġhe":6425,"$$hn":6426,"$$malÄ±sÄ±nÄ±z":6427,"Ġ150":6428,"06":6429,"Ġsahne":6430,"Ġtuv":6431,"$$ibe":6432,"Ġlaborat":6433,"Ġmasraf":6434,"Ġgeril":6435,"ĠolmamasÄ±":6436,"Ġolmay":6437,"Ġpap":6438,"Ġyusuf":6439,"ĠkaydÄ±":6440,"ĠseÃ§imi":6441,"Ġunutul":6442,"$$cÄ±lÄ±ÄŁÄ±":6443,"Ġant":6444,"Ġfan":6445,"Ġkemik":6446,"Ġsivas":6447,"Ġcaddesi":6448,"Ġq":6449,"Ġicin":6450,"Ġtraf":6451,"slÃ¢m":6452,"Ġdoy":6453,"$$utma":6454,"ĠÃ¶dÃ¼lÃ¼":6455,"$$lanacak":6456,"$$oru":6457,"04":6458,"$$uman":6459,"Ġtedarik":6460,"Ġrengi":6461,"ĠbakÄ±n":6462,"Ġinf":6463,"Ġkuy":6464,"$$ÅŁÄ±k":6465,"ĠakÄ±ÅŁ":6466,"ĠÃ§izgi":6467,"Ġmerhaba":6468,"ĠsÃ¼rpr":6469,"Ġayda":6470,"$$leyin":6471,"Ġdiplo":6472,"do":6473,"$$Ã¢t":6474,"Ġnakliye":6475,"ĠÃ§izg":6476,"ĠÃ¼retilen":6477,"$$barÄ±":6478,"$$tifak":6479,"Ġekipman":6480,"ĠsÃ¼rece":6481,"Ġsonsuz":6482,"ĠkalÄ±p":6483,"$$mede":6484,"Ġ2000":6485,"Ġdergisi":6486,"Ġheps":6487,"Ġfilmin":6488,"$$ding":6489,"$$malarÄ±n":6490,"Ġdenir":6491,"Ġihtimal":6492,"Ġaran":6493,"ĠprogramlarÄ±":6494,"$$emizin":6495,"Ġhatt":6496,"Ġtehlikeli":6497,"ĠaÃ§Ä±klamasÄ±":6498,"$$ÅŁi":6499,"ĠÃ§Ä±r":6500,"$$umuzun":6501,"$$ona":6502,"Ġiman":6503,"Ġnec":6504,"Ġgelmesi":6505,"ĠbulaÅŁ":6506,"ĠalmasÄ±":6507,"Ġhalka":6508,"ĠsÃ¶n":6509,"Ġoz":6510,"ĠmÃ¼lk":6511,"$$aÄŁÄ±nÄ±":6512,"ĠdeÄŁildi":6513,"Ġsilin":6514,"Ġnam":6515,"Ġvade":6516,"Ġmasaj":6517,"Ġtablet":6518,"Ġalabilir":6519,"Ġhttp":6520,"Ġlise":6521,"$$larÄ±mÄ±":6522,"Ġsebeple":6523,"$$elli":6524,"$$enkul":6525,"Ġkoleksiyon":6526,"Ġgl":6527,"dÃ¼nya":6528,"$$enti":6529,"ĠalgÄ±":6530,"man":6531,"$$fik":6532,"Ġderken":6533,"Ġedilerek":6534,"ĠakÄ±n":6535,"ĠsÄ±navÄ±":6536,"ĠÃ¶mr":6537,"ĠhavalimanÄ±":6538,"ĠbulunmasÄ±":6539,"ma":6540,"$$ende":6541,"ĠdeÄŁiÅŁikliÄŁi":6542,"ĠkalkÄ±nma":6543,"ĠgeldiÄŁini":6544,"Ġzan":6545,"ĠÅŁunu":6546,"Ġonunla":6547,"$$Ã¢m":6548,"Ġraf":6549,"der":6550,"$$kun":6551,"Ġaraz":6552,"Ġ37":6553,"07":6554,"ĠÃ¼rÃ¼nÃ¼n":6555,"$$ates":6556,"Ġemlak":6557,"Ġsesi":6558,"ĠkupasÄ±":6559,"$$ÅŁamba":6560,"ĠgenÃ§ler":6561,"ĠolayÄ±":6562,"Ġmail":6563,"ĠrÃ¼zgar":6564,"$$acÄ±k":6565,"Ġlideri":6566,"Ġsantr":6567,"Ġvizyon":6568,"Ġkamyon":6569,"Ġ65":6570,"Ġ!":6571,"):":6572,"ĠgÃ¶rdÃ¼m":6573,"$$amaÅŁ":6574,"$$ys":6575,"Ġtavsiy":6576,"ĠÃ§Ã¶k":6577,"$$ebilen":6578,"ÅŁimdi":6579,"ĠÃ¶nemi":6580,"Ġvesil":6581,"$$aban":6582,"ĠÃ¶mÃ¼r":6583,"ĠyapÄ±lmaktadÄ±r":6584,"yak":6585,"Ġnez":6586,"Ġolamaz":6587,"ĠkaynaklarÄ±":6588,"$$malarÄ±na":6589,"$$itim":6590,"$$emedi":6591,"$$ato":6592,"Ġtescil":6593,"ĠsÃ¶zler":6594,"Ġcal":6595,"Ġharekete":6596,"ĠbakanlÄ±k":6597,"$$larÄ±nÄ±za":6598,"ĠÄ±":6599,"$$leyece":6600,"Ġkaybol":6601,"ĠhayatÄ±n":6602,"ĠuyuÅŁtur":6603,"Ġkutu":6604,"Ġfilistin":6605,"Ã¶nc":6606,"$$iya":6607,"Ġ48":6608,"ĠsatÄ±ÅŁa":6609,"Ġhotel":6610,"ĠÅŁekli":6611,"ĠgÃ¶revlendir":6612,"benim":6613,"ĠsalÄ±":6614,"Ġje":6615,"ĠvasÄ±":6616,"$$lÃ½":6617,"Ġeklem":6618,"Ġkek":6619,"ĠgÃ¶zÃ¼k":6620,"Ġambalaj":6621,"Ġgelince":6622,"Ġsaatlerinde":6623,"ĠyÄ±llarÄ±":6624,"$$mara":6625,"Ġtrump":6626,"$$dun":6627,"$$Ã¼man":6628,"ĠgÃ¶stermektedir":6629,"Ġzorlu":6630,"ĠgÃ¼ndÃ¼z":6631,"Ġhakan":6632,"Ġenfeksiyon":6633,"Ġcema":6634,"ĠÃ¼yeler":6635,"$$ÅŁembe":6636,"Ġversiyon":6637,"Ġmilliyet":6638,"Ġsc":6639,"$$mo":6640,"Ġpolit":6641,"Ġmacer":6642,"ĠsorularÄ±":6643,"Ġverici":6644,"Ã¶ÄŁr":6645,"ĠÃ§alÄ±ÅŁmaya":6646,"Ġkore":6647,"ĠmÃ¼hendisliÄŁi":6648,"$$Ã¼kle":6649,"Ġefsan":6650,"ĠazÄ±ndan":6651,"ĠrahatlÄ±kla":6652,"ĠgÃ¼ler":6653,"Ġkeyf":6654,"Ġfatur":6655,"ĠsÃ¶ylemek":6656,"Ġturnuv":6657,"ĠanlatÄ±yor":6658,"$$leyecek":6659,"Ġlistesi":6660,"Ġenflasyon":6661,"ĠgÃ¶revl":6662,"$$ebi":6663,"$$ick":6664,"Ġbuldu":6665,"$$unuzun":6666,"Ġcel":6667,"$$adÄ±m":6668,"Ġsisteminin":6669,"Ġbasketbol":6670,"Ġbeklenen":6671,"$$Ã¼lÃ¼r":6672,"$$eÄŁine":6673,"Ġtaraftan":6674,"Ġgelmektedir":6675,"Ġhid":6676,"Ġgayrim":6677,"Ġdigit":6678,"ĠmantÄ±k":6679,"ĠmiktarÄ±":6680,"Ġettiler":6681,"ĠyaralÄ±":6682,"Ġasit":6683,"ÅŁu":6684,"Ġdoktora":6685,"uy":6686,"Ġpeyn":6687,"ĠkullanÄ±cÄ±lar":6688,"$$diven":6689,"ĠbaktÄ±ÄŁ":6690,"ĠÃ§ekir":6691,"ĠiyileÅŁtir":6692,"$$ect":6693,"$$unuza":6694,"Ġyerleri":6695,"ĠÅŁirketin":6696,"Ġriv":6697,"$$tez":6698,"Ġmobilya":6699,"ĠaracÄ±n":6700,"Ġsaatleri":6701,"Ġ44":6702,"ĠsunmaktadÄ±r":6703,"Ġolmaktan":6704,"ĠanlattÄ±":6705,"Ġkrem":6706,"Ġdua":6707,"Ġannesi":6708,"Ġailen":6709,"$$daroÄŁlu":6710,"ĠyÃ¶nde":6711,"ĠÃ§alÄ±ÅŁmak":6712,"Ġyunanistan":6713,"ĠsatÄ±ÅŁÄ±":6714,"Ġlak":6715,"$$Ã§u":6716,"$$lanarak":6717,"ter":6718,"Ġalev":6719,"ĠiÅŁyer":6720,"Ġveriler":6721,"$$tikten":6722,"Ġprim":6723,"Ġsorular":6724,"ĠoluÅŁur":6725,"ĠyÃ¼zlerce":6726,"Ġfas":6727,"08":6728,"ĠsÃ¼recinde":6729,"ĠÃ¶nder":6730,"ĠyaÅŁÄ±yor":6731,"ĠsabÄ±r":6732,"ah":6733,"ĠsektÃ¶rÃ¼":6734,"$$riyet":6735,"$$ang":6736,"ndir":6737,"oy":6738,"ĠaraÃ§larÄ±":6739,"ĠbakalÄ±m":6740,"Ġlit":6741,"ĠÅŁartlarÄ±":6742,"Ġgezi":6743,"Ġmedyum":6744,"Ġaziz":6745,"Ġmuhalef":6746,"ĠarasÄ±ndan":6747,"$$ÄŁÄ±na":6748,"$$abilmektedir":6749,"$$beri":6750,"$$indistan":6751,"ĠaÅŁkÄ±n":6752,"Ġeleman":6753,"$$larken":6754,"ĠbaÅŁladÄ±m":6755,"ĠiÃ§inden":6756,"$$amayan":6757,"Ġdenem":6758,"ĠkazandÄ±":6759,"$$bahar":6760,"Ġkarbon":6761,"Ġapart":6762,"Ġaksine":6763,"kit":6764,"ĠyalÄ±":6765,"Ġkampanya":6766,"Ġkaybetti":6767,"$$abilmesi":6768,"Ġpencer":6769,"Ġlu":6770,"Ġparla":6771,"Ġag":6772,"$$emli":6773,"ĠdÃ¼ÅŁÃ¼ÅŁ":6774,"Ġfederasyonu":6775,"Ġpotansiyel":6776,"ĠoluÅŁturan":6777,"Ġ191":6778,"Ġblok":6779,"Ġteknolojisi":6780,"Ġsn":6781,"deÄŁ":6782,"ĠgÄ±":6783,"Ġfit":6784,"$$kal":6785,"$$yaz":6786,"ĠolmalarÄ±":6787,"ĠmaÃ§Ä±nda":6788,"$$abi":6789,"Ġceph":6790,"kul":6791,"$$insel":6792,"$$isindeki":6793,"ĠÃ¼lkemizin":6794,"Ġkg":6795,"Ġteker":6796,"Ġestetik":6797,"ndeki":6798,"Ġerzurum":6799,"Ġevinde":6800,"ĠyapÄ±yoruz":6801,"$$mesinden":6802,"ĠbÃ¶lÃ¼n":6803,"ĠgÃ¶rÃ¼yoruz":6804,"liÅŁk":6805,"ĠalÄ±mÄ±":6806,"ĠulaÅŁmak":6807,"ĠÃ¶rneÄŁi":6808,"$$ukur":6809,"$$ork":6810,"ĠattÄ±":6811,"ĠgeÃ§iyor":6812,"ĠÃ¶te":6813,"ĠbaÅŁlama":6814,"Ġmektup":6815,"ĠarkadaÅŁÄ±":6816,"$$tum":6817,"Ġ38":6818,"Ġbenimle":6819,"devlet":6820,"ĠÃ§ekiyor":6821,"$$Ä±labilecek":6822,"ĠÃ§arÅŁamba":6823,"ĠÅŁehri":6824,"ĠbirÅŁey":6825,"$$lukla":6826,"ĠkarÅŁÄ±mÄ±za":6827,"Ġalana":6828,"Ġkanat":6829,"Ġtemsilcisi":6830,"Ġdisiplin":6831,"Ġdoku":6832,"Ġkutlu":6833,"posta":6834,"lgili":6835,"ĠyapmasÄ±":6836,"ĠayrÄ±ntÄ±lÄ±":6837,"ĠdÃ¼zenlediÄŁi":6838,"ĠlÃ¼ks":6839,"kan":6840,"ĠvatandaÅŁlar":6841,"?\"":6842,"Ġmarket":6843,"Ġvefat":6844,"Ġemre":6845,"$$alel":6846,"ĠÃ¶ÄŁrencilere":6847,"ĠtaÅŁÄ±mak":6848,"Ġbenden":6849,"ĠfÄ±rsatÄ±":6850,"$$laya":6851,"Ġolgun":6852,"Ġdairesi":6853,"ĠsÃ¼rpriz":6854,"Ġkonular":6855,"Ġgram":6856,"par":6857,"ĠÅŁeyleri":6858,"Ġbacak":6859,"$$larÄ±nÄ±zÄ±n":6860,"Ġuzan":6861,"$$mus":6862,"Ġverilecek":6863,"ĠiÅŁletme":6864,"Ġbeslen":6865,"Ġyuvar":6866,"90":6867,"$$denin":6868,"Ġprofil":6869,"Ġplaj":6870,"ĠanlamlÄ±":6871,"ĠiletiÅŁime":6872,"ĠbÃ¼tÃ§e":6873,"ri":6874,"Ġihal":6875,"$$masi":6876,"ĠgÃ¶rmÃ¼ÅŁ":6877,"Ġuydu":6878,"Ġkonuyu":6879,"$$ester":6880,"ĠperÅŁembe":6881,"Ġkalitesi":6882,"$$bel":6883,"Ġmeden":6884,"Ġseksi":6885,"Ġyorgun":6886,"Ġyil":6887,"Ġaslan":6888,"$$led":6889,"ĠkontrolÃ¼":6890,"Ġcinayet":6891,"$$oda":6892,"Ġgelerek":6893,"Ġulu":6894,"$$ÄŁimi":6895,"$$mini":6896,"ĠgeliÅŁen":6897,"ĠolduÄŁunda":6898,"Ġtir":6899,"ĠdÃ¶r":6900,"$$oper":6901,"Ġoyuncak":6902,"Ġzamanla":6903,"$$lÄ±ktan":6904,"Ġ09":6905,"Ġkonus":6906,"$$ava":6907,"Ġelbis":6908,"Ġbozul":6909,"Ġolama":6910,"ĠyansÄ±t":6911,"Ġkabil":6912,"$$anlÄ±ur":6913,"Ġtbmm":6914,"Ġhaberi":6915,"ĠÃ§atÄ±":6916,"Ġgeride":6917,"nci":6918,"$$lamalÄ±":6919,"ĠkayÄ±tlÄ±":6920,"Ġhaftada":6921,"$$melerini":6922,"$$alog":6923,"Ġolaylar":6924,"Ġmuhtar":6925,"Ġnumara":6926,"ĠkatÄ±ldÄ±ÄŁÄ±":6927,"Ġkoyun":6928,"Ġinceleme":6929,"ĠgeniÅŁlet":6930,"ĠbaÅŁs":6931,"ĠarasÄ±na":6932,"ĠdanÄ±ÅŁmanlÄ±k":6933,"$$tek":6934,"31":6935,"Ġtey":6936,"kÄ±r":6937,"ĠsunduÄŁu":6938,"$$imizle":6939,"$$Ã¼Ã§":6940,"Ġatak":6941,"ĠbahÃ§eli":6942,"Ġbizimle":6943,"Ġehl":6944,"Ġsakarya":6945,"bunun":6946,"ĠeÄŁlence":6947,"Ġorhan":6948,"Ġanlar":6949,"$$ilmelidir":6950,"Ġaksi":6951,"Ġniteli":6952,"Ġimzalan":6953,"ĠolmanÄ±n":6954,"ĠÃ¶ÄŁrenme":6955,"Ġfo":6956,"Ġevin":6957,"$$yle":6958,"Ġkurmak":6959,"Ġboru":6960,"Ġsiyasal":6961,"Ġolmasa":6962,"ĠgelmiÅŁtir":6963,"ĠedeceÄŁiz":6964,"ĠÅŁarj":6965,"Ġbilmiyorum":6966,"Ġlek":6967,"Ġ2019":6968,"Ġevr":6969,"ĠkararlÄ±":6970,"Ġsus":6971,"Ġpom":6972,"$$lerdeki":6973,"Ġikram":6974,"Ġkutsal":6975,"$$tÄ±ktan":6976,"ĠkaÅŁÄ±ÄŁÄ±":6977,"ĠyÄ±la":6978,"$$umuzu":6979,"$$giz":6980,"Ġras":6981,"ĠuyuÅŁturucu":6982,"Ġgam":6983,"Ġkoyu":6984,"$$onik":6985,"Ġchat":6986,"$$abak":6987,"ĠâĢĻ":6988,"Ġtaze":6989,"ĠhakkÄ±nÄ±":6990,"Ġtim":6991,"Ġhakem":6992,"$$osk":6993,"Ġhamur":6994,"$$pg":6995,"ĠmÃ¼zesi":6996,"ĠyapmayÄ±":6997,"Ġbekleniyor":6998,"ĠilÃ§esi":6999,"Ġparis":7000,"$$amÄ±zda":7001,"Ġicra":7002,"Ġpi":7003,"Ġbos":7004,"ĠdaÄŁÄ±tÄ±m":7005,"Ġetiket":7006,"Ġsitesinde":7007,"$$utube":7008,"Ġizlem":7009,"ĠdÃ¶nemin":7010,"Ġkast":7011,"Ġistedim":7012,"ĠzararlÄ±":7013,"Ġoranda":7014,"ko":7015,"$$itif":7016,"Ġhazret":7017,"ĠneÅŁ":7018,"ĠeÅŁliÄŁinde":7019,"$$atlar":7020,"$$idi":7021,"ĠÃ§ekmek":7022,"ĠÅŁirketleri":7023,"Ġdersi":7024,"Ġstok":7025,"Ġpolitika":7026,"Ġrandev":7027,"Ġettikleri":7028,"$$duktan":7029,"kend":7030,"Ġmekaniz":7031,"ĠanlayÄ±ÅŁÄ±":7032,"ĠÅŁimdiden":7033,"$$gari":7034,"Ġcasino":7035,"Ġmide":7036,"Ġpa":7037,"$$isin":7038,"$$esir":7039,"Ġisterim":7040,"ĠaylarÄ±nda":7041,"ĠtanÄ±k":7042,"ĠkalabalÄ±k":7043,"Ġkov":7044,"ĠduyarlÄ±":7045,"Ġdondur":7046,"$$espor":7047,"Ġanayas":7048,"Ġfiltr":7049,"Ġ01":7050,"$$nu":7051,"Ġmater":7052,"Ġvergisi":7053,"Ġhareketi":7054,"ĠgÃ¶rdÃ¼":7055,"Ġtren":7056,"Ġ400":7057,"ĠtÄ±bbi":7058,"Ġsesli":7059,"ĠbakÄ±r":7060,"Ġgemi":7061,"ĠenstitÃ¼sÃ¼":7062,"Ġ75":7063,"Ã¢":7064,"Ġorij":7065,"$$ÅŁe":7066,"$$raz":7067,"Ġseyret":7068,"Ġseviyorum":7069,"ĠyakÄ±t":7070,"$$60":7071,"ĠâĢ¢":7072,"ĠmaÃ§ta":7073,"Ġsaniye":7074,"ĠkurtuluÅŁ":7075,"Ġmanevi":7076,"kam":7077,"ĠkarÅŁÄ±n":7078,"Ġnesn":7079,"ĠÃ¶ÄŁrenmek":7080,"$$dÄ±nÄ±z":7081,"ĠhesabÄ±":7082,"Ġhorm":7083,"Ġ41":7084,"Ġbayanlar":7085,"ĠbÃ¶lgeye":7086,"$$daÄŁÄ±":7087,"Ġbro":7088,"Ġlik":7089,"ĠadÄ±yla":7090,"Ġsembol":7091,"2013":7092,"$$manÄ±za":7093,"Ġmutf":7094,"ĠkarÅŁÄ±lÄ±klÄ±":7095,"Ġegzersiz":7096,"$$----":7097,"Ġrezervasyon":7098,"ĠbÃ¼yÃ¼y":7099,"mi":7100,"Ġdevir":7101,"Ġkurulum":7102,"$$abiliriz":7103,"Ġgeriye":7104,"ĠÃ¼mit":7105,"ĠoluÅŁum":7106,"ĠaÅŁÄ±k":7107,"Ġtesti":7108,"ĠdÃ¼zgÃ¼n":7109,"ĠaltyapÄ±":7110,"Ġgayrimenkul":7111,"Ġbm":7112,"$$lup":7113,"Ġduygusal":7114,"Ġtekst":7115,"$$aÅŁÄ±":7116,"ĠÅŁartÄ±":7117,"$$Ã½Ã¾":7118,"$$ds":7119,"Ã¼r":7120,"$$atÃ§Ä±":7121,"$$lerinize":7122,"$$bÃ¼s":7123,"Ġhamil":7124,"$$fed":7125,"$$cÄ±nÄ±n":7126,"ĠkullanÄ±larak":7127,"$$tel":7128,"ĠbirleÅŁik":7129,"ĠkiÅŁiyi":7130,"$$lanmaktadÄ±r":7131,"ĠÃ§aÄŁdaÅŁ":7132,"ĠÃ§ocuklara":7133,"Ġduruyor":7134,"Ġcaz":7135,"ĠyemeÄŁi":7136,"Ġkendisinin":7137,"Ġbilimleri":7138,"ulus":7139,"Ġ2006":7140,"Ġolmuyor":7141,"ĠsÃ¼rÃ¼m":7142,"Ġbomb":7143,"Ġolabilecek":7144,"Ġ194":7145,"$$api":7146,"Ġkonaklama":7147,"Ġetkileri":7148,"ĠsÄ±nÄ±rlarÄ±":7149,"Ġdizisi":7150,"$$aa":7151,"ĠdÄ±ÅŁÄ±na":7152,"Ġmateryal":7153,"ĠgeldiÄŁinde":7154,"ĠunutmayÄ±n":7155,"Ġuk":7156,"ĠcanlandÄ±r":7157,"ĠsaÄŁlanmasÄ±":7158,"$$abilirler":7159,"ĠsÃ¼rÃ¼yor":7160,"Ġaktivit":7161,"$$sÃ¼":7162,"$$linik":7163,"$$sis":7164,"sÃ¶z":7165,"ĠgÃ¶rdÃ¼ÄŁÃ¼":7166,"ĠdÃ¶ÅŁ":7167,"Ġetken":7168,"Ġgereksin":7169,"ĠyÃ¶ntemleri":7170,"Ġbulma":7171,"Ġortada":7172,"Ġburun":7173,"Ġsenar":7174,"ĠÃ§alÄ±ÅŁmalarÄ±na":7175,"$$kim":7176,"Ġzehir":7177,"Ġtaksit":7178,"ĠgÃ¶nÃ¼llÃ¼":7179,"Ġisteyenler":7180,"Ġetmez":7181,"Ġetkiley":7182,"ĠÅŁubesi":7183,"Ġteknolojik":7184,"ĠÃ§Ä±karÄ±":7185,"ĠgÃ¶rÃ¼lÃ¼r":7186,"res":7187,"$$ekler":7188,"Ġvadeli":7189,"Ġdenizli":7190,"ĠÅŁeye":7191,"$$muÅŁtu":7192,"ĠilanÄ±":7193,"Ġdurumun":7194,"Ġ39":7195,"Ġtebrik":7196,"ĠiÅŁlemler":7197,"Ġkafa":7198,"mil":7199,"Ġidari":7200,"muh":7201,"Ġsir":7202,"Ġroma":7203,"$$likler":7204,"$$yaspor":7205,"$$iÄŁe":7206,"ĠgÃ¶stermek":7207,"Ġbiliyorum":7208,"Ġedici":7209,"$$liyoruz":7210,"35":7211,"Ġtaahh":7212,"Ġprotein":7213,"Ġliste":7214,"ĠalÄ±rken":7215,"ĠgÃ¶revli":7216,"Ġprojenin":7217,"ĠpayÄ±":7218,"Ġmol":7219,"tic":7220,"Ġtali":7221,"Ġgib":7222,"$$emem":7223,"ĠrÃ¼y":7224,"ĠdolandÄ±r":7225,"$$lon":7226,"Ġfeth":7227,"ĠuyarÄ±nca":7228,"ĠÃ¶ÄŁrenim":7229,"Ġsizden":7230,"Ġsec":7231,"Ġprojeleri":7232,"ĠodalarÄ±":7233,"ĠkÄ±la":7234,"Ġformu":7235,"Ġhitap":7236,"Ġsch":7237,"ĠhattÄ±":7238,"ĠÃ¼lkelerin":7239,"Ġresimleri":7240,"$$lasman":7241,"Ġilah":7242,"ĠÃ¼zeri":7243,"ĠaÃ§an":7244,"kap":7245,"Ġokumak":7246,"ĠgÃ¶zden":7247,"ĠgeliÅŁme":7248,"Ġlond":7249,"Ġhur":7250,"ĠsÄ±ÄŁÄ±n":7251,"ĠyÃ¼ce":7252,"Ġbilgilere":7253,"Ġecz":7254,"ĠalmÄ±ÅŁtÄ±r":7255,"ĠðŁĻ":7256,"ĠettiÄŁiniz":7257,"$$dv":7258,"ĠpahalÄ±":7259,"ti":7260,"ĠiÄŁ":7261,"cumhurbaÅŁ":7262,"60":7263,"Ġtahsil":7264,"Ġcesaret":7265,"ĠaldÄ±k":7266,"Ġbildirdi":7267,"$$mu":7268,"Ġbirine":7269,"ĠkaybÄ±":7270,"ĠteÅŁkilat":7271,"ĠyatÄ±rÄ±mcÄ±":7272,"Ġokum":7273,"ĠsayÄ±sÄ±nÄ±n":7274,"$$Ã©":7275,"Ġhindistan":7276,"Ġverdim":7277,"ĠhÄ±zÄ±":7278,"$$eÄŁini":7279,"Ġbabam":7280,"Ġkerim":7281,"$$lamayÄ±":7282,"Ġsizlerin":7283,"Ġdefter":7284,"ĠdÃ¼nyasÄ±":7285,"$$irli":7286,"Ġirade":7287,"$$anlÄ±urfa":7288,"Ġperde":7289,"$$sever":7290,"Ġkoruyucu":7291,"Ġayet":7292,"$$ax":7293,"Ġfilmleri":7294,"$$pat":7295,"$$emeyece":7296,"ĠgetirdiÄŁi":7297,"ĠgÃ¶rÃ¼nce":7298,"Ġkartal":7299,"Ã§er":7300,"$$Ä±nd":7301,"Ġair":7302,"Ġbizde":7303,"Ġdelik":7304,"Ġsayfada":7305,"$$medim":7306,"$$eÄŁinde":7307,"ĠkapsamlÄ±":7308,"ĠkorunmasÄ±":7309,"ĠyaÄŁÄ±ÅŁ":7310,"Ġstratejik":7311,"Ġmalzemeler":7312,"ĠarkasÄ±nda":7313,"Ġ47":7314,"ĠmÃ¼hendislik":7315,"ĠÃ§Ã¶p":7316,"dr":7317,"Ġyumurt":7318,"ĠtarzÄ±":7319,"ĠgerÃ§ekleÅŁti":7320,"Ġsizde":7321,"Ġevrak":7322,"Ã¶zellikle":7323,"ĠhÃ¼kÃ¼meti":7324,"$$leyip":7325,"Ġbeton":7326,"Ġetmeyi":7327,"$$lÄ±ÄŁÄ±ndan":7328,"ĠhakkÄ±ndaki":7329,"Ġayakta":7330,"Ġinstagram":7331,"$$mec":7332,"ĠdeÄŁerleri":7333,"Ġhdp":7334,"Ġzul":7335,"Ġkriter":7336,"$$ebilmesi":7337,"Ġsistemin":7338,"Ġdelil":7339,"ĠbÃ¼yÃ¼t":7340,"ĠkullanÄ±lmaktadÄ±r":7341,"Ġplana":7342,"Ġpamuk":7343,"$$liÄŁiyle":7344,"$$rosoft":7345,"Ġinceley":7346,"ĠolmuÅŁtu":7347,"ĠkatkÄ±da":7348,"$$layÄ±nÄ±z":7349,"$$ts":7350,"Ġ42":7351,"Ġmaddesinin":7352,"ĠdÃ¼ÅŁÃ¼nÃ¼r":7353,"$$avuÅŁ":7354,"Ġ$":7355,"$$ebileceÄŁi":7356,"Ġnar":7357,"Ġkoku":7358,"ĠÃ¼stlen":7359,"$$gulan":7360,"ĠaÃ§Ä±ldÄ±":7361,"ĠÃ§ant":7362,"$$diy":7363,"ĠbaÅŁarÄ±sÄ±z":7364,"spanya":7365,"Ġkendileri":7366,"Ġplatformu":7367,"ĠkomÅŁu":7368,"Ġtutum":7369,"$$lanabilir":7370,"ĠsÃ¼nnet":7371,"Ġyuv":7372,"Ġyork":7373,"$$Ã§Ä±n":7374,"Ġtohum":7375,"$$ustur":7376,"Ġkoruy":7377,"Ġimar":7378,"Ġdiyorum":7379,"ĠÃ§iÄŁ":7380,"45":7381,"Ġteknolojileri":7382,"ĠyÃ¼rÃ¼rlÃ¼ÄŁe":7383,"ĠÃ¶zellikler":7384,"Ġkonseyi":7385,"ĠtemizliÄŁi":7386,"ĠdeÄŁiÅŁen":7387,"$$iyorsunuz":7388,"ĠiÅŁletim":7389,"ĠakÄ±m":7390,"$$esince":7391,"$$suzluk":7392,"Ġdenilen":7393,"$$Ã§Ä±lÄ±k":7394,"Ġtuvalet":7395,"Ġkaybeden":7396,"$$emize":7397,"ĠtamamÄ±":7398,"Ġgu":7399,"ĠbaÅŁladÄ±ÄŁÄ±":7400,"Ġyetki":7401,"ĠyetiÅŁkin":7402,"ĠyurtdÄ±ÅŁ":7403,"ĠaÃ§tÄ±":7404,"$$ml":7405,"ĠeÅŁlik":7406,"Ġbeklet":7407,"ĠbugÃ¼nkÃ¼":7408,"Ġbitti":7409,"ĠanlaÅŁma":7410,"nu":7411,"Ġkatli":7412,"Ġsandal":7413,"ĠcumhurbaÅŁkanlÄ±ÄŁÄ±":7414,"ĠyÄ±lÄ±na":7415,"ĠyazÄ±cÄ±":7416,"Ġkalacak":7417,"ĠÃ¶lÃ§Ã¼m":7418,"Ġhastane":7419,"Ġbulur":7420,"nan":7421,"ĠkÄ±saca":7422,"$$esto":7423,"sel":7424,"Ġkedi":7425,"ĠyapÄ±labilir":7426,"Ġbizzat":7427,"$$istiyan":7428,"kat":7429,"Ġihale":7430,"Ġmetro":7431,"Ġgidecek":7432,"Ġevine":7433,"ĠÃ§abuk":7434,"ĠalanÄ±na":7435,"$$Ã§ek":7436,"ĠsÃ¶zleÅŁmesi":7437,"ĠbÃ¼yÃ¼kel":7438,"$$ste":7439,"bah":7440,"$$hab":7441,"$$__":7442,"Ġdevreye":7443,"Ġrot":7444,"Ġ250":7445,"Ġ195":7446,"ĠkonularÄ±":7447,"Ġorijinal":7448,"Ġhukuki":7449,"Ġled":7450,"eÄŁ":7451,"$$tÄ±ÄŁÄ±m":7452,"Ġkamuoy":7453,"ĠhacÄ±":7454,"$$Ã¼mÃ¼zde":7455,"ĠbaÄŁlam":7456,"$$wn":7457,"ĠbuluÅŁtur":7458,"tl":7459,"Ġbors":7460,"Ġkonuya":7461,"Ġsunucu":7462,"ĠkÄ±lÄ±Ã§daroÄŁlu":7463,"$$cuk":7464,"ĠsÄ±caklÄ±k":7465,"ĠkitaplarÄ±":7466,"ĠnoktasÄ±nda":7467,"Ġbiliyoruz":7468,"Ġkilometre":7469,"Ġbekleyen":7470,"$$und":7471,"$$sh":7472,"Ġdinamik":7473,"ĠhÃ¢l":7474,"Ġparalel":7475,"Ġslog":7476,"Ġqu":7477,"Ġadli":7478,"ĠdÃ¼zenlendi":7479,"$$gÃ¼l":7480,"$$Ã»l":7481,"ĠalakalÄ±":7482,"Ġsamsung":7483,"Ġkategorisinde":7484,"Ġfaaliyetleri":7485,"Ġtarihine":7486,"ĠarkadaÅŁlarÄ±":7487,"Ġasan":7488,"Ġduran":7489,"$$stan":7490,"Ġorganik":7491,"$$del":7492,"$$all":7493,"ĠolaÄŁanÃ¼stÃ¼":7494,"$$ruk":7495,"Ġsistemine":7496,"ĠdoÄŁur":7497,"Ġreferans":7498,"Ġlastik":7499,"ĠkiÅŁilere":7500,"$$ediÄŁini":7501,"Ġkarn":7502,"$$Ã¼lmÃ¼ÅŁ":7503,"ĠÄ±rk":7504,"Ġpiyasaya":7505,"Ġstres":7506,"Ġsuyun":7507,"$$lamalarÄ±":7508,"ĠkÄ±lav":7509,"ĠÃ§Ä±kmasÄ±":7510,"ĠÅŁÃ¶":7511,"ĠkÄ±smÄ±nda":7512,"kiralama":7513,"yu":7514,"Ġtabak":7515,"Ġbran":7516,"Ġorganiz":7517,"ĠdÄ±ÅŁÄ±ndaki":7518,"ĠÃ§Ä±ktÄ±ÄŁÄ±":7519,"ĠtÃ¼p":7520,"ĠkÃ¶prÃ¼":7521,"Ġsinyal":7522,"Ġeks":7523,"Ġiv":7524,"Ġinsana":7525,"Ġtrend":7526,".(":7527,"ĠkeÃ§":7528,"ĠverilmiÅŁtir":7529,"Ġbedeli":7530,"$$itasyon":7531,"$$ecik":7532,"Ġistey":7533,"Ġbuton":7534,"ĠyayÄ±mlanan":7535,"ĠÃ¶p":7536,"ĠkaranlÄ±k":7537,"ĠÃ¶zgÃ¼n":7538,"ĠaraÃ§lar":7539,"Ġgerekirse":7540,"$$ebilmektedir":7541,"Ġolmakla":7542,"Ġfrag":7543,"Ùİ":7544,"ĠbÃ¶lgesel":7545,"ĠhaftalÄ±k":7546,"$$tip":7547,"ĠrahatsÄ±zlÄ±k":7548,"Ġdudak":7549,"ĠyapÄ±lmÄ±ÅŁtÄ±r":7550,"Ġbildirildi":7551,"ĠhayatÄ±na":7552,"$$!!":7553,"ĠsÃ¼rÃ¼k":7554,"ĠÄ±n":7555,"Ġsemt":7556,"ĠyÃ¼kÃ¼mlÃ¼l":7557,"ĠyÃ¼klen":7558,"Ġmaksim":7559,"Ġoynanan":7560,"Ġdeli":7561,"Ġstar":7562,"Ġizlemek":7563,"Ġpal":7564,"ĠkÃ¼tÃ¼phan":7565,"Ġbiber":7566,"Ġhic":7567,"ĠaltÄ±ndaki":7568,"Ġsaha":7569,"ĠgÃ¶sterdiÄŁi":7570,"Ġsunar":7571,"ĠaÃ§Ä±kÃ§a":7572,"Ġimzal":7573,"ĠkÄ±smÄ±nÄ±":7574,"Ġasgari":7575,"mo":7576,"ĠbaÅŁkanlÄ±k":7577,"Ġyiy":7578,"$$mit":7579,"ĠparkÄ±":7580,"$$name":7581,"ĠÃ§Ä±kÄ±p":7582,"ĠbÃ¶lÃ¼mde":7583,"ĠbaÅŁkenti":7584,"ĠgÃ¶revini":7585,"ĠyÃ¼rÃ¼tÃ¼len":7586,"ĠdÃ¼zenlenecek":7587,"ĠÃ§apÄ±nda":7588,"Ġneyse":7589,"Ġistatistik":7590,"ge":7591,"$$osyal":7592,"$$Ã¼lÃ¼yor":7593,"$$lÄ±yoruz":7594,"$$eceÄŁine":7595,"ĠbahÃ§e":7596,"ĠsÄ±ÄŁ":7597,"Ġistenen":7598,"ĠitibarÄ±":7599,"ĠdÃ¶nemlerde":7600,"ĠÃ§amaÅŁ":7601,"$$Ä±lmaya":7602,"Ġtoptan":7603,"$$ife":7604,"Ġoradan":7605,"Ġesen":7606,"ĠÃ¶ykÃ¼":7607,"$$erbay":7608,"Ġkalmak":7609,"ĠÅŁeref":7610,"ĠÄ±sÄ±t":7611,"Ġkablo":7612,"ĠgÃ¼nÃ¼nde":7613,"ĠtÃ¼y":7614,"ĠtarafÄ±nda":7615,"$$ded":7616,"ĠdeÄŁilim":7617,"Ġserisi":7618,"$$Ä±lmak":7619,"os":7620,"Ġstaj":7621,"Ġobj":7622,"ĠeÅŁsiz":7623,"Ġmarmara":7624,"ĠfÄ±":7625,"$$ektaÅŁ":7626,"Ġlay":7627,"ĠsayfasÄ±":7628,"ĠolduÄŁunun":7629,"Ġrobot":7630,"ĠÃ§ukur":7631,"ĠajansÄ±":7632,"ĠkeÅŁfet":7633,"$$ee":7634,"ĠÃ¶dey":7635,"Ġpiyasa":7636,"$$bÄ±":7637,"Ġdiv":7638,"$$indan":7639,"Ġoraya":7640,"Ġmerkezine":7641,"Ġminik":7642,"Ġvalisi":7643,"ĠarkadaÅŁÄ±m":7644,"Ġiklim":7645,"ĠtebliÄŁ":7646,"$$eleriyle":7647,"$$gazi":7648,"Ġtavuk":7649,"Ġcerrahi":7650,"$$ach":7651,"ĠboÅŁan":7652,"Ġotop":7653,"ĠyerleÅŁim":7654,"ĠdÃ¶ner":7655,"Ġtrav":7656,"$$lerimi":7657,"Ġniye":7658,"$$imet":7659,"ĠkÃ¼ltÃ¼rÃ¼":7660,"Ġalama":7661,"Ġbaraj":7662,"ĠÃ§ekin":7663,"$$yurt":7664,"Ġkaybed":7665,"ĠbiliÅŁim":7666,"Ġfelsef":7667,"$$dÄ±rma":7668,"tur":7669,"Ġhu":7670,"ol":7671,"sav":7672,"ĠÃ¶ÄŁrenildi":7673,"Ġbag":7674,"Ġgeldik":7675,"Ġdirek":7676,"ĠtoplantÄ±sÄ±nda":7677,"$$ÄŁÄ±nÄ±n":7678,"ĠyarÄ±ÅŁma":7679,"$$Ã¢l":7680,"Ġkuvvetleri":7681,"Ġmevzuat":7682,"Ġdesen":7683,"Ġmuhar":7684,"ĠkaldÄ±ÄŁÄ±":7685,"ser":7686,"Ġhepsini":7687,"$$mece":7688,"ĠbÄ±Ã§ak":7689,"Ġheyet":7690,"$$erbaycan":7691,"ĠyardÄ±mÄ±":7692,"$$Ã§ilik":7693,"ĠbÃ¼yÃ¼sÃ¼":7694,"$$omet":7695,"Ġlaf":7696,"ĠdÃ¶rd":7697,"ĠbÃ¶lgenin":7698,"Ġforma":7699,"ĠanlatÄ±m":7700,"$$lasÄ±":7701,"Ġamir":7702,"Ġdirekt":7703,"ĠyaptÄ±ÄŁÄ±nÄ±":7704,"$$25":7705,"$$lendirme":7706,"chp":7707,"ĠÃ§Ä±l":7708,"$$adoÄŁu":7709,"yÃ¼k":7710,"Ġbulunmak":7711,"$$iÄŁin":7712,"Ġrestoran":7713,"ĠgÃ¶rÃ¼ÅŁme":7714,"Ġsekiz":7715,"ĠfarklÄ±lÄ±k":7716,"ĠgÃ¶v":7717,"$$yeri":7718,"ĠsaÄŁlamaktadÄ±r":7719,"$$aÄŁÄ±nÄ±n":7720,"ĠamaÃ§la":7721,"Ġokula":7722,"et":7723,"Ġtopu":7724,"ĠkarÅŁÄ±lÄ±ÄŁÄ±":7725,"$$onspor":7726,"Ġpe":7727,"$$lit":7728,"ĠdÃ¼kkan":7729,"ĠgÃ¶rÃ¼lmektedir":7730,"mm":7731,"Ġolsay":7732,"Ġkurumlar":7733,"Ġtac":7734,"Ġgecesi":7735,"Ġpersoneli":7736,"$$nem":7737,"haber":7738,"ĠeÅŁyalar":7739,"$$Ã¼kleer":7740,"$$and":7741,"Ġtalimat":7742,"Ġpozitif":7743,"Ġsex":7744,"ĠtÃ¼":7745,"$$mediÄŁini":7746,"Ġuzaktan":7747,"ĠkÄ±rk":7748,"aÃ§Ä±k":7749,"Ġsitemizde":7750,"ĠbuÄŁ":7751,"Ġyazan":7752,"Ġkep":7753,"diÄŁer":7754,"ĠbaÅŁtan":7755,"ĠsÃ¼rÃ¼c":7756,"Ġoyna":7757,"Ġkazanmak":7758,"org":7759,"$$vin":7760,"ĠgerÃ§ekleÅŁtirildi":7761,"Ġbardak":7762,"Ġtoplamda":7763,"Ġ2005":7764,"Ġherkesi":7765,"Ġefendi":7766,"Ġbayr":7767,"ĠaÄŁÄ±rlÄ±k":7768,"ĠcevabÄ±":7769,"Ġutan":7770,"$$press":7771,"ĠÃ§etin":7772,"$$ebileceÄŁiniz":7773,"$$aÄŁÄ±na":7774,"Ġbizden":7775,"$$Ä±mÄ±zdan":7776,"$$isti":7777,"ĠiÃ§ecek":7778,"ĠsÃ¶yler":7779,"bun":7780,"Ġlezzetli":7781,"Ġinci":7782,"Ġ54":7783,"dem":7784,"Ġomuz":7785,"Ġsonradan":7786,"ĠkÃ¼f":7787,"Ġatmos":7788,"ĠinÅŁallah":7789,"ĠsÄ±nÄ±fÄ±":7790,"ĠsakÄ±n":7791,"ĠyaralandÄ±":7792,"ĠðŁĻĤ":7793,"Ġven":7794,"ĠÃ§Ä±kma":7795,"ĠgeleceÄŁi":7796,"Ġkurucu":7797,"$$obal":7798,"Ġbizleri":7799,"Ġburadaki":7800,"Ġtopluluk":7801,"Ġtelek":7802,"ĠkÄ±yÄ±":7803,"$$ich":7804,"Ġuygulamaya":7805,"2012":7806,"ĠsanÄ±k":7807,"ĠverilmiÅŁ":7808,"ĠoluÅŁturmak":7809,"Ġsep":7810,"ĠpoÅŁ":7811,"Ġpilot":7812,"Ġdisk":7813,"ĠÅŁok":7814,"Ġkitaplar":7815,"ĠsÃ¶k":7816,"ĠaradÄ±ÄŁ":7817,"$$mekle":7818,"$$Ä±kÃ¶y":7819,"ĠamatÃ¶r":7820,"$$enize":7821,"Ġbirimi":7822,"Ġyerlere":7823,"Ġhele":7824,"Ġzincir":7825,"$$gn":7826,"Ġsemp":7827,"$$lediÄŁiniz":7828,"lÃ§esi":7829,"ĠgÃ¶rÃ¼le":7830,"$$emizi":7831,"Ġvize":7832,"Ġedit":7833,"Ġmerkezleri":7834,"ĠÃ¶rgÃ¼":7835,"$$yeni":7836,"Ġbekliyoruz":7837,"Ġverilmektedir":7838,"ĠfuarÄ±":7839,"$$emiyor":7840,"ĠatÃ¶ly":7841,"ĠumarÄ±m":7842,"ĠadamÄ±n":7843,"ĠÃ¶v":7844,"$$iciler":7845,"$$Ä±nÄ±yor":7846,"$$we":7847,"ĠyakÄ±ÅŁ":7848,"ĠodaklÄ±":7849,"ĠkalÄ±yor":7850,"Ġ08":7851,"ĠtarafÄ±":7852,"Ġsahipleri":7853,"ĠiÅŁÄ±k":7854,"Ġov":7855,"ĠyargÄ±lan":7856,"Ġmedeniyet":7857,"$$ss":7858,"Ġdepolama":7859,"$$iyeli":7860,"ĠyazdÄ±ÄŁÄ±":7861,"ĠdÃ¶ndÃ¼":7862,"Ġmanisa":7863,"Ġederler":7864,"Ġboyutu":7865,"Ġsistemini":7866,"Ġkade":7867,"talyan":7868,"Ġmp":7869,"ĠmÃ¼te":7870,"ĠettiÄŁimiz":7871,"ĠtÄ±klayÄ±n":7872,"Ġvicdan":7873,"Ġru":7874,"ĠuzaklaÅŁ":7875,"Ġkonulu":7876,"Ġhikmet":7877,"ĠgÃ¶rme":7878,"$$gk":7879,"ĠÃ¶zÃ¼r":7880,"nsanlar":7881,"$$tor":7882,"ĠtÄ±pkÄ±":7883,"Ġloj":7884,"ĠtÃ¼ketici":7885,"ĠbaÅŁlamÄ±ÅŁtÄ±r":7886,"Ġbilimler":7887,"Ġdaima":7888,"ĠdÃ¼nyadaki":7889,"Ġyeterince":7890,"ark":7891,"ĠdÃ¼":7892,"$$uncu":7893,"Ġhizmete":7894,"Ġkatk":7895,"ĠfÄ±n":7896,"Ġmaksimum":7897,"$$umuza":7898,"Ġtamamla":7899,"Ġarda":7900,"Ġdomat":7901,"$$ilecektir":7902,"ĠyazarÄ±":7903,"$$yaman":7904,"ĠgÃ¶zet":7905,"$$lemiÅŁ":7906,"Ġrandevu":7907,"$$ÅŁak":7908,"em":7909,"$$mÄ±yorum":7910,"$$Ä¡":7911,"ĠseÃ§eneÄŁi":7912,"Ġsorunsuz":7913,"Ġ53":7914,"Ġmilletin":7915,"ĠonarÄ±m":7916,"Ġziraat":7917,"$$10":7918,"Ġvitamin":7919,"Ġposta":7920,"$$desi":7921,"Ġyavru":7922,"Ġfed":7923,"Ġsag":7924,"Ġvermesi":7925,"$$ash":7926,"ĠÃ§im":7927,"Ġirti":7928,"Ġtekstil":7929,"Ġkombi":7930,"Ġcemaat":7931,"Ġlondra":7932,"ĠÃ§aba":7933,"ĠÃ¼lkeye":7934,"ĠkÃ¶ken":7935,"Ġbilinc":7936,"Ġelinden":7937,"$$luÄŁa":7938,"ĠkullanÄ±yor":7939,"ĠbaÅŁlÄ±k":7940,"$$ure":7941,"Ġeline":7942,"$$aÄŁÄ±nda":7943,"$$Ã§Ä±sÄ±":7944,"Ġeng":7945,"yor":7946,"$$acaÄŁÄ±mÄ±z":7947,"Ġneticesinde":7948,"Ġsalih":7949,"ĠalanlarÄ±nda":7950,"ĠdevamlÄ±":7951,"Ġpatent":7952,"$$yim":7953,"kim":7954,"Ġabon":7955,"Ġteklifi":7956,"ĠbebeÄŁ":7957,"Ġrady":7958,"ĠtÄ±kanÄ±k":7959,"Ġkongre":7960,"ĠcanÄ±m":7961,"ĠkoÅŁullarÄ±":7962,"ĠkarÄ±ÅŁÄ±k":7963,"Ġsakat":7964,"ĠsÃ¼rÃ¼":7965,"$$sÄ±nÄ±n":7966,"ĠÅŁair":7967,"Ġbozukluk":7968,"ĠgÃ¶ze":7969,"Ġedir":7970,"$$larÄ±mÄ±zla":7971,"Ġdigiturk":7972,"ĠvatandaÅŁlarÄ±n":7973,"Ġyoutube":7974,"ĠinanÄ±lmaz":7975,"ĠiÃ§eriÄŁi":7976,"Ġdiliyorum":7977,"Ġcevab":7978,"ĠvazgeÃ§ilmez":7979,"Ġekst":7980,"Ġzeytinya":7981,"ĠgeÃ§irmek":7982,"avrupa":7983,"Ġemr":7984,"Ġtutun":7985,"Ġgebelik":7986,"Ġkonuyla":7987,"Ġtalebi":7988,"ĠmÃ¼zak":7989,"Ġstil":7990,"ĠdeÄŁiÅŁken":7991,"$$app":7992,"Ġesnek":7993,"ĠfÄ±rÄ±n":7994,"kadÄ±n":7995,"Ġmecbur":7996,"Ġseo":7997,"$$izmin":7998,"ÅŁletme":7999,"$$has":8000,"ĠÃ¶ztÃ¼rk":8001,"ĠsatÄ±r":8002,"ĠyapmaktadÄ±r":8003,"Ġyavuz":8004,"ĠyaÅŁamÄ±nÄ±":8005,"Ġmaddeler":8006,"Ġyazma":8007,"Ġtopla":8008,"Ġnolu":8009,"Ġhocam":8010,"Ġverileri":8011,"$$tÄ±lÄ±":8012,"ĠbÃ¼lent":8013,"Ġfikri":8014,"$$io":8015,"$$ive":8016,"Ã¼lk":8017,"lu":8018,"Ġhor":8019,"eski":8020,"ĠasansÃ¶r":8021,"Ġlogo":8022,"Ġkula":8023,"$$dÄ±kÃ§a":8024,"har":8025,"Ġalet":8026,"Ġ43":8027,"$$caÄŁÄ±z":8028,"Ġlimon":8029,"Ġikisi":8030,"Ġ193":8031,"ĠiyileÅŁ":8032,"$$cell":8033,"Ġibadet":8034,"$$iÅŁe":8035,"ĠdirektÃ¶rÃ¼":8036,"ĠseÃ§ilen":8037,"Ġmaliye":8038,"$$malÄ±yÄ±z":8039,"ĠdediÄŁi":8040,"ĠaÅŁamasÄ±nda":8041,"Ġdom":8042,"yÃ¼z":8043,"Ġmiras":8044,"$$ersiniz":8045,"ĠarÄ±z":8046,"ĠdeÄŁiÅŁimi":8047,"ĠkarÅŁÄ±lÄ±ÄŁÄ±nda":8048,"$$luÄŁunu":8049,"ĠÃ¼lkelerde":8050,"$$ÅŁek":8051,"Ġlimit":8052,"ĠÃ§alÄ±ÅŁÄ±yoruz":8053,"Ġkendime":8054,"ĠkarÅŁÄ±sÄ±na":8055,"ĠkarÄ±n":8056,"Ġkarac":8057,"Ġdert":8058,"ĠreÃ§":8059,"ĠiÃ§erir":8060,"Ġyoksul":8061,"ĠdÃ¼ÅŁÃ¼ndÃ¼ÄŁ":8062,"ĠtaahhÃ¼t":8063,"ĠyÃ¶netici":8064,"Ġboyun":8065,"$$dular":8066,"Ġistasyon":8067,"$$gut":8068,"Ġdub":8069,"Ġdilim":8070,"ĠÄ±srar":8071,"$$peryal":8072,"$$tÃ¼k":8073,"hat":8074,"$$arlÄ±k":8075,"$$oks":8076,"ĠtÃ¼rkÃ§":8077,"Ġcek":8078,"Ġvekil":8079,"ĠsÄ±radan":8080,"ĠkadÄ±kÃ¶y":8081,"$$dil":8082,"ĠyaÄŁlÄ±":8083,"ĠiliÅŁkileri":8084,"$$pss":8085,"ĠsÃ¼rdÃ¼rÃ¼lebilir":8086,"Ġkombin":8087,"Ġ46":8088,"Ġdeplasman":8089,"$$use":8090,"Ġolmazsa":8091,"Ġedenler":8092,"ĠolaylarÄ±":8093,"$$dola":8094,"Ġdediler":8095,"Ġvas":8096,"ĠdoÄŁalgaz":8097,"ĠbulunduÄŁunu":8098,"ĠolmasÄ±nÄ±n":8099,"$$ker":8100,"Ġedecektir":8101,"Ġanlamak":8102,"$$efa":8103,"ticaret":8104,"$$inizden":8105,"$$lÄ±yorum":8106,"ĠyÃ¼zÃ¼":8107,"ĠsÃ¶mÃ¼r":8108,"$$mes":8109,"ĠiÃ§erisine":8110,"gerÃ§":8111,"Ġihlal":8112,"Ġgalibiyet":8113,"Ġbakar":8114,"Ġsizinle":8115,"Ã§al":8116,"ĠnÃ¼kleer":8117,"$$tÃ¼rÃ¼":8118,"Ġtesisat":8119,"Ġriski":8120,"$$umuzda":8121,"$$lÄ±lar":8122,"$$meyece":8123,"ĠÃ§Ä±karak":8124,"ĠhazÄ±rlanmÄ±ÅŁ":8125,"Ġkonse":8126,"ĠdeÄŁiÅŁiklikler":8127,"Ġrom":8128,"Ġkapital":8129,"Ġmuz":8130,"Ġtelekom":8131,"$$ebilm":8132,"Ġtrak":8133,"Ġfiyatlar":8134,"ĠmekÃ¢n":8135,"Ġdemokras":8136,"ĠkapÄ±sÄ±":8137,"$$akal":8138,"Ġbilmiyor":8139,"Ġcaf":8140,"$$lub":8141,"$$tÄ±klarÄ±nÄ±":8142,"Ġgor":8143,"Ġgetiriyor":8144,"Ġikili":8145,"Ġhollanda":8146,"Ġgirer":8147,"ĠhikÃ¢y":8148,"ĠtÃ¼rkmen":8149,"ĠkuruluÅŁlarÄ±":8150,"ĠÃ§eÅŁitleri":8151,"ĠÃ§Ã¶zÃ¼mÃ¼":8152,"ĠdÃ¼nyayÄ±":8153,"ĠkolaylÄ±kla":8154,"Ġarabistan":8155,"$$dere":8156,"$$yn":8157,"Ġ64":8158,"ĠaÃ§Ä±klandÄ±":8159,"Ġliman":8160,"ĠhayatÄ±nda":8161,"Ġyolunu":8162,"$$jinal":8163,"$$anÄ±p":8164,"Ġkesi":8165,"$$ld":8166,"Ġgibidir":8167,"$$malara":8168,"$$iÄŁeri":8169,"ĠgÃ¶reve":8170,"Ġrekor":8171,"$$Ä±cÄ±sÄ±":8172,"Ġreferan":8173,"stik":8174,"Ġnereye":8175,"Ġoturum":8176,"Ġlev":8177,"ĠyazÄ±yor":8178,"Ġyapay":8179,"ĠtoplantÄ±da":8180,"$$70":8181,"ĠkurulmuÅŁ":8182,"Ġlt":8183,"ĠanlamÄ±nda":8184,"ĠgÃ¼cÃ¼nÃ¼":8185,"ĠbÃ¶ylelikle":8186,"Ġ49":8187,"inci":8188,"Ġarslan":8189,"198":8190,"$$ilya":8191,"ĠyazÄ±n":8192,"$$cik":8193,"ĠetrafÄ±nda":8194,"ĠtakÄ±mÄ±n":8195,"$$aklÄ±":8196,"Ġannem":8197,"Ġselim":8198,"ĠortadoÄŁu":8199,"Ġbirlikt":8200,"Ġgazeteci":8201,"ĠsektÃ¶rÃ¼nÃ¼n":8202,"ĠkitabÄ±n":8203,"Ġsisteme":8204,"ĠkadÄ±nÄ±":8205,"ĠyardÄ±mÄ±yla":8206,"âĢĻâĢĻ":8207,"ĠzamanlÄ±":8208,"Ġburcu":8209,"ĠhalkÄ±nÄ±n":8210,"ĠÃ§alÄ±ÅŁtÄ±ÄŁÄ±":8211,"Ġverdik":8212,"Ġheykel":8213,"Ġverebilir":8214,"$$Ã¼be":8215,"Ġjapon":8216,"has":8217,"beyaz":8218,"ĠhafÄ±z":8219,"ĠalÄ±nmÄ±ÅŁ":8220,"ĠÅŁirketler":8221,"ĠperformansÄ±":8222,"Ġhepimiz":8223,"say":8224,"Ġholding":8225,"Ġbelirgin":8226,"$$Ã§ilerin":8227,"Ġpc":8228,"ĠØ":8229,"ĠtaÅŁÄ±yor":8230,"ĠkurumlarÄ±":8231,"pek":8232,"$$11":8233,"$$tÄ±ÄŁÄ±nÄ±z":8234,"ĠistediÄŁini":8235,"Ġrehberi":8236,"Ġprotesto":8237,"ĠÃ¶nemlisi":8238,"Ġminim":8239,"Ġtazminat":8240,"mparator":8241,"$$utin":8242,"$$rum":8243,"Ġmedyada":8244,"$$ew":8245,"Ġ1000":8246,"ĠÅŁof":8247,"Ġti":8248,"Ġyang":8249,"ĠmeydanÄ±":8250,"Ġonlardan":8251,"Ġsamimi":8252,"Ġkendinize":8253,"$$Ä±nan":8254,"$$iyesi":8255,"ĠdoÄŁrusu":8256,"Ġelbise":8257,"$$amalarÄ±":8258,"Ġleh":8259,"Ġbulgar":8260,"ĠÃ¶rnekleri":8261,"$$gim":8262,"$$yu":8263,"ĠolanÄ±":8264,"$$Ä±lÄ±ÄŁÄ±":8265,"$$Ä±lacaktÄ±r":8266,"ĠÃ§avuÅŁ":8267,"ĠgeliÅŁtirmek":8268,"ĠayrÄ±m":8269,"$$Ã¼nce":8270,"Ġdenize":8271,"Ġerdem":8272,"ĠnÄ±n":8273,"Ġzem":8274,"$$imp":8275,"$$fez":8276,"Ġetmeniz":8277,"$$lÃ¼ÄŁÃ¼nÃ¼":8278,"Ġmerdiven":8279,"$$yd":8280,"$$Ã¶nÃ¼":8281,"Ġismini":8282,"Ġmuhasebe":8283,"Ġparsel":8284,"ĠbÄ±rakÄ±n":8285,"ĠÃ§Ã¶zÃ¼mler":8286,"$$Ã½m":8287,"Ġkaplama":8288,"ĠselÃ§uk":8289,"ĠmarkasÄ±":8290,"Ġva":8291,"$$ano":8292,"ĠtÃ¼f":8293,"ĠgÃ¶rebilirsiniz":8294,"$$eÄŁinin":8295,"ĠgeliÅŁimi":8296,"Ġbudur":8297,"ĠcihazÄ±":8298,"$$mÄ±ÅŁtÄ±m":8299,"$$Ã¼yÃ¼":8300,"ĠyÃ¼kleme":8301,"$$ktc":8302,"Ġbulabil":8303,"ĠÅŁahit":8304,"ĠihraÃ§":8305,"Ġoyunda":8306,"Ġelektrikli":8307,"Ġdeneme":8308,"ĠsahipliÄŁi":8309,"ĠiÅŁini":8310,"ĠbastÄ±r":8311,"ĠgÃ¶rÃ¼ntÃ¼len":8312,"$$likte":8313,"$$resyon":8314,"Ġistikrar":8315,"$$leniyor":8316,"ĠhÄ±zlandÄ±r":8317,"$$mesin":8318,"$$ersi":8319,"$$unum":8320,"$$ÄŁinizi":8321,"ĠmÃ¼j":8322,"ĠÅŁÃ¼phesiz":8323,"ĠarÄ±":8324,"Ġeskiden":8325,"ĠetkileÅŁ":8326,"Ġakla":8327,"Ġ2004":8328,"ĠarÄ±yor":8329,"ĠortamÄ±":8330,"Ġtavan":8331,"Ġima":8332,"ĠfirmalarÄ±n":8333,"Ġyoluna":8334,"$$ilerinde":8335,"Ġplanlama":8336,"Ġkadir":8337,"Ġhatay":8338,"ĠpaylaÅŁmak":8339,"$$Ä±lÄ±rken":8340,"ĠoruÃ§":8341,"Ġevrensel":8342,"Ġsuudi":8343,"Ġgetirir":8344,"Ġbilgilerin":8345,"Ġcol":8346,"Ġra":8347,"ĠkullanÄ±cÄ±larÄ±n":8348,"ĠsÄ±nÄ±rsÄ±z":8349,"Ġ120":8350,"$$ight":8351,"Ġsic":8352,"mu":8353,"Ġveli":8354,"yani":8355,"Ġcamii":8356,"Ġpres":8357,"Ġmetr":8358,"Ġizni":8359,"ĠÃ¶ÄŁle":8360,"$$ikal":8361,"Ġ(%":8362,"Ġyir":8363,"$$Ã¼rt":8364,"Ġby":8365,"Ġmeb":8366,"Ġhormon":8367,"ĠfarkÄ±nd":8368,"ĠÅŁuan":8369,"Ġfatura":8370,"Ġbildirim":8371,"Ġpros":8372,"ĠsÃ¼z":8373,"$$sey":8374,"Ġevvel":8375,"ĠdevamÄ±nÄ±":8376,"ĠÃ§evresinde":8377,"Ġ<":8378,"ĠÃ¶zlem":8379,"ĠgeÃ§mek":8380,"ĠÃ§Ã¶zÃ¼n":8381,"$$Ã¢hil":8382,"Ġidare":8383,"Ġmanzar":8384,"ĠparÃ§alarÄ±":8385,"ĠsonuÃ§ta":8386,"sosyal":8387,"Ġolurdu":8388,"ĠgÃ¶zler":8389,"Ġnefret":8390,"Ġhttps":8391,"$$rayna":8392,"laÃ§":8393,"ĠbasÄ±nÃ§":8394,"ĠbÄ±raktÄ±":8395,"Ġklinik":8396,"$$alay":8397,"$$duÄŁunda":8398,"ĠhaksÄ±z":8399,"Ġhang":8400,"Ġimalat":8401,"Ġolurken":8402,"70":8403,"ĠmÃ¼sabak":8404,"ĠgÃ¶rÃ¼ntÃ¼l":8405,"Ġsantral":8406,"Ġseviyede":8407,"Ġjaponya":8408,"$$Ã§ileri":8409,"Ġkavg":8410,"bas":8411,"Ġsayg":8412,"$$oter":8413,"$$osiklet":8414,"ĠmeÅŁhur":8415,"Ġittifak":8416,"Ġbolu":8417,"$$tÄ±ÄŁÄ±nda":8418,"ĠpolitikasÄ±":8419,"ĠyÄ±llarÄ±nda":8420,"Ġmy":8421,"Ġformat":8422,"Ġbelgeler":8423,"$$portaj":8424,"ĠbaÅŁÄ±ndan":8425,"ĠulaÅŁtÄ±":8426,"Ġgarip":8427,"ĠzamandÄ±r":8428,"$$Ä±mdan":8429,"$$ilirken":8430,"ĠbÃ¶br":8431,"Ġzamana":8432,"80":8433,"Ġpoli":8434,"Ġmisiniz":8435,"Ã§i":8436,"sÄ±nÄ±f":8437,"Ġvekili":8438,"Ġtom":8439,"Ġkasab":8440,"$$ÅŁet":8441,"$$Ñĸ":8442,"Ġetkiler":8443,"ĠÃ¼ni":8444,"Ġoynamak":8445,"Ġeseri":8446,"Ġskor":8447,"Ġanalizi":8448,"Ġmemnuniyet":8449,"Ġ51":8450,"Ġuf":8451,"Ġmuayene":8452,"$$Ã½z":8453,"ĠmÃ¼ziÄŁi":8454,"Ġkeskin":8455,"ĠzorundadÄ±r":8456,"$$ood":8457,"haz":8458,"ir":8459,"ĠgÄ±d":8460,"$$oid":8461,"Ġazerbaycan":8462,"ĠtamamladÄ±":8463,"ĠÅŁanlÄ±urfa":8464,"ĠmesajÄ±":8465,"$$birliÄŁi":8466,"Ġbulacak":8467,"Ġrejim":8468,"ĠortasÄ±nda":8469,"Ġsis":8470,"ĠburasÄ±":8471,"Ġtarihte":8472,"$$Ã¼ven":8473,"Ġkimin":8474,"ÅŁi":8475,"ĠolayÄ±n":8476,"ĠyapacaÄŁÄ±":8477,"iÅŁ":8478,"ĠÅŁem":8479,"ĠuzaklaÅŁtÄ±r":8480,"Ġsekreter":8481,"ĠgÃ¶Ã§men":8482,"$$Ã§asÄ±":8483,"Ġbest":8484,"Ġhalil":8485,"Ġfe":8486,"bÃ¶lÃ¼m":8487,"bazÄ±":8488,"Ġmilyonlarca":8489,"ĠgidiÅŁ":8490,"Ġimam":8491,"$$sÄ±ndan":8492,"rus":8493,"ĠgeÃ§erek":8494,"$$anlarÄ±n":8495,"$$labilir":8496,"genÃ§":8497,"$$emiyorum":8498,"ĠhastanÄ±n":8499,"$$Ã¿":8500,"ĠuygulanÄ±r":8501,"$$yasÄ±":8502,"Ġsebze":8503,"ĠyapÄ±larak":8504,"$$luÄŁun":8505,"Ġkaynaklanan":8506,"Ġharca":8507,"ĠkaynaklÄ±":8508,"Ġvurgulayan":8509,"Ġsunuyoruz":8510,"Ġmotiv":8511,"$$df":8512,"Ġonlarca":8513,"$$abileceÄŁini":8514,"ĠboÅŁluk":8515,"ĠolmasÄ±n":8516,"ĠÃ§Ä±kardÄ±":8517,"Ġseminer":8518,"Ġevleri":8519,"ĠoluÅŁturulan":8520,"Ġbakanlar":8521,"ĠdolarlÄ±k":8522,"Ġtutuklu":8523,"Ġplanda":8524,"ĠyararlÄ±":8525,"Ġkritik":8526,"ĠyÃ¼rÃ¼m":8527,"ĠvirÃ¼s":8528,"Ġetkinlikleri":8529,"ĠbalÄ±kesir":8530,"$$Ã¼lasyon":8531,"Ġpant":8532,"Ġsahte":8533,"ĠbaÅŁarÄ±lar":8534,"ĠbaÅŁbak":8535,"$$kusuz":8536,"Ġonlarla":8537,"Ġstad":8538,"ĠilanlarÄ±":8539,"$$ned":8540,"ĠprogramÄ±na":8541,"Ġpis":8542,"ĠmuÄŁla":8543,"Ġ58":8544,"Ġermeni":8545,"ĠtartÄ±ÅŁma":8546,"ĠyaptÄ±ÄŁÄ±nÄ±z":8547,"$$aket":8548,"ĠmÃ¼sa":8549,"$$abilme":8550,"Ġkader":8551,"$$doÄŁu":8552,"ĠyazÄ±sÄ±":8553,"ĠkazÄ±":8554,"Ġpad":8555,"ĠsavcÄ±":8556,"im":8557,"ĠarkadaÅŁlÄ±k":8558,"ĠgÃ¼lÃ¼m":8559,"ĠatÄ±yor":8560,"Ġedirne":8561,"Ġisimler":8562,"Ġhastaneye":8563,"ĠrÄ±z":8564,"Ġbeyn":8565,"Ġcezaev":8566,"$$24":8567,"Ġyorumlar":8568,"Ġgetirilen":8569,"ĠbÃ¼ro":8570,"Ġkullanmaya":8571,"$$ilmek":8572,"Ġ600":8573,"$$adaÅŁ":8574,"Ġbla":8575,"Ã§iÅŁleri":8576,"$$masÄ±z":8577,"ĠÅŁeyh":8578,"Ġafyon":8579,"Ġhemde":8580,"Ġsindir":8581,"ver":8582,"Ġbilgilerini":8583,"Ġ|--":8584,"Ġgereklidir":8585,"yer":8586,"ĠfirmanÄ±n":8587,"Ġsaatte":8588,"$$isar":8589,"Ġizleyen":8590,"Ġhikaye":8591,"ĠÃ§amaÅŁÄ±r":8592,"Ġgran":8593,"Ġermen":8594,"ĠdÃ¼rÃ¼st":8595,"ĠsÃ¶ylemiÅŁ":8596,"Ġgun":8597,"ĠyeryÃ¼z":8598,"bizim":8599,"Ġistenilen":8600,"Ġtitiz":8601,"Ġtatmin":8602,"$$Ã¼min":8603,"Ġmezunu":8604,"Ġhakaret":8605,"ĠortamÄ±nda":8606,"ĠkÃ¼p":8607,"$$leÅŁtirme":8608,"Ġtutmak":8609,"$$uÅŁu":8610,"Ġoturma":8611,"ndaki":8612,"Ġmelek":8613,"Ġmuc":8614,"Ġihmal":8615,"ĠhayvancÄ±lÄ±k":8616,"Ġdeneyimli":8617,"mes":8618,"Ġsergi":8619,"Ġnihayet":8620,"ĠgÃ¶sterilen":8621,"ĠâĢĺâĢĻ":8622,"Ġbuzdola":8623,"ĠsaÄŁlay":8624,"Ġdeneyimi":8625,"$$ildiÄŁinde":8626,"$$bas":8627,"Ġ00":8628,"ĠÃ§Ä±karmak":8629,"Ġca":8630,"ĠhÃ¼rriyet":8631,"mak":8632,"ĠÃ§oÄŁunlukla":8633,"ĠtavÄ±r":8634,"Ġni":8635,"$$alik":8636,"$$Ã¼sÃ¼nÃ¼":8637,"ĠtÃ¼n":8638,"ĠsektÃ¶rde":8639,"Ġzeki":8640,"Ġsinan":8641,"Ġseyr":8642,"$$kÃ¢r":8643,"Ġodalar":8644,"ĠgÃ¶rÃ¼nen":8645,"Ġkimseye":8646,"ĠÃ¶tÃ¼rÃ¼":8647,"Ġbalkon":8648,"ĠbaÅŁlÄ±ÄŁÄ±":8649,"$$uel":8650,"Ġcey":8651,"$$itler":8652,"ĠkaÅŁÄ±k":8653,"Ġetmem":8654,"ĠÂ«":8655,"ĠdÃ¶rdÃ¼ncÃ¼":8656,"ĠkuruluÅŁu":8657,"aynÄ±":8658,"$$hiÅŁ":8659,"$$olon":8660,"Ġingil":8661,"Ġtezgah":8662,"$$amalar":8663,"ĠÃ¶ÄŁretmenler":8664,"Ġcor":8665,"sam":8666,"ĠherÅŁey":8667,"Ġceb":8668,"ĠyÄ±ldan":8669,"Ġfig":8670,"Ġ2002":8671,"az":8672,"Ġkaydeden":8673,"ĠmÃ¼dÃ¼rlÃ¼k":8674,"ĠoÄŁuz":8675,"ĠyapÄ±ÅŁtÄ±r":8676,"Ġï":8677,"ĠÃ§eyrek":8678,"$$yolu":8679,"Ġdomates":8680,"Ġhareketli":8681,"ĠÃ¶ÄŁrencisi":8682,"Ġgev":8683,"$$27":8684,"Ġbelgeleri":8685,"ĠoranlarÄ±":8686,"Ġpik":8687,"ĠÅŁeyden":8688,"ĠbaÅŁak":8689,"ĠdÃ¼zel":8690,"$$lusu":8691,"ÄŁi":8692,"ĠÅŁiddetli":8693,"Ġcinsiyet":8694,"ĠaldÄ±ÄŁÄ±mÄ±z":8695,"$$aydÄ±":8696,"Ġailenin":8697,"Ġgirmek":8698,"$$dp":8699,"$$ena":8700,"Ġkongresi":8701,"Ġmotoru":8702,"Ġai":8703,"ĠbasÄ±":8704,"Ġoynayan":8705,"ĠcÃ¼z":8706,"ĠmÃ¼kelle":8707,"ĠrÃ¶portaj":8708,"ĠÃ¶len":8709,"Ġspons":8710,"$$masÄ±dÄ±r":8711,"$$liÄŁinden":8712,"$$ydi":8713,"Ġdurumlar":8714,"Ġdokuz":8715,"ĠsÄ±klÄ±kla":8716,"$$ulacak":8717,"Ġisimleri":8718,"ĠoluÅŁturur":8719,"ĠabdÃ¼l":8720,"Ġsevdik":8721,"Ġoyuna":8722,"ĠÃ¶ÄŁretmenleri":8723,"ĠboÅŁal":8724,"ĠsÃ¶zlÃ¼":8725,"$$caya":8726,"ĠmÃ¼raca":8727,"Ġfikr":8728,"Ġdinlen":8729,"Ġadaylar":8730,"ĠolanlarÄ±n":8731,"$$je":8732,"ĠitibarÄ±yla":8733,"Ġruhsat":8734,"ĠÃ§alÄ±ÅŁmalarÄ±n":8735,"Ġziyade":8736,"$$operatif":8737,"ĠkÃ¶ylÃ¼":8738,"Ġmask":8739,"ĠÐ":8740,"Ġentegre":8741,"ĠbaÅŁsav":8742,"$$gul":8743,"Ġtarihten":8744,"Ìĩ.":8745,"$$orit":8746,"Ġilerleyen":8747,"$$uki":8748,"ĠgÃ¶nderilen":8749,"Ġisyan":8750,"$$vent":8751,"ĠkomutanÄ±":8752,"ĠdeÄŁerler":8753,"Ġmotosiklet":8754,"ĠiÅŁletmeler":8755,"ĠaÃ§Ä±klamalarda":8756,"Ġuydur":8757,"ĠvarlÄ±ÄŁÄ±":8758,"$$kale":8759,"ĠtaÅŁÄ±nmaz":8760,"Ġglobal":8761,"sab":8762,"Ġgb":8763,"Ġgiderken":8764,"$$metik":8765,"Ġtemizleme":8766,"Ġmilletler":8767,"Ġdevre":8768,"$$ĠĠĠĠĠĠĠĠ":8769,"ĠdÃ¢hil":8770,"$$iÃ§i":8771,"$$fan":8772,"Ġfabrika":8773,"ĠtÃ¶reni":8774,"Ġsergilen":8775,"ĠvasÄ±t":8776,"Ġkelimeler":8777,"ĠÃ¼reten":8778,"ĠiÅŁleme":8779,"ĠoluÅŁturduÄŁu":8780,"$$esidir":8781,"$$ÄŁimde":8782,"$$elif":8783,"ĠolacaÄŁÄ±z":8784,"Ġnadir":8785,"$$melisiniz":8786,"ĠetkinliÄŁi":8787,"$$pÄ±nar":8788,"Ġmicrosoft":8789,"burada":8790,"ĠolmasÄ±dÄ±r":8791,"Ġmuhalefet":8792,"$$dinde":8793,"ĠaÄŁÄ±rlÄ±klÄ±":8794,"Ġnereden":8795,"Ġberaberinde":8796,"$$burg":8797,"ĠgerÃ§eÄŁi":8798,"ĠgÃ¶revlisi":8799,"Ġadil":8800,"Ġkapsamda":8801,"$$ug":8802,"$$kas":8803,"sÄ±":8804,"$$esun":8805,"Ġsitede":8806,"ĠkardeÅŁi":8807,"Ġolimp":8808,"ĠaÃ§mak":8809,"Ġekstra":8810,"Ġmuam":8811,"hayÄ±r":8812,"$$coin":8813,"Ġfl":8814,"ĠÅŁÃ¼pheli":8815,"Ġverin":8816,"ĠÃ¼retici":8817,"Ġvitamini":8818,"$$dÄ±ÄŁÄ±nÄ±n":8819,"$$cal":8820,"sade":8821,"ĠaldÄ±ÄŁÄ±nÄ±":8822,"ĠdetaylarÄ±":8823,"ĠÃ¶nlemek":8824,"ĠsÃ¶zcÃ¼k":8825,"ĠdÃ¶nemine":8826,"Ġjohn":8827,"ĠalmayÄ±":8828,"Ġhastalar":8829,"Ġkonsol":8830,"Ġduyuru":8831,"Ġlazer":8832,"Ġislam":8833,"Ġdurak":8834,"Ġmuhtemelen":8835,"ĠoÄŁl":8836,"ap":8837,"ĠendÃ¼striyel":8838,"Ġhavay":8839,"Ġeyalet":8840,"ĠgerekÃ§esiyle":8841,"ĠgÃ¼nÃ¼mÃ¼ze":8842,"ĠdiÄŁeri":8843,"Ġhij":8844,"ĠÅŁiirleri":8845,"Ġgirecek":8846,"ĠyarÄ±ÅŁmasÄ±":8847,"Ġkemer":8848,"Ġsunmak":8849,"Ġoyuncular":8850,"Ġsuya":8851,"ĠyorumlarÄ±":8852,"Ġatmosfer":8853,"Ġgergin":8854,"Ġgezeg":8855,"Ġibaret":8856,"Ġtc":8857,"$$amayacak":8858,"Ġrivayet":8859,"Ġfilmler":8860,"bay":8861,"$$anÄ±zÄ±":8862,"ĠÃ¶ÄŁrencinin":8863,"Ġemperyal":8864,"ĠanlatÄ±r":8865,"kÄ±":8866,"Ġmuhafaza":8867,"Ġceviz":8868,"$$load":8869,"Ġkablos":8870,"beÅŁ":8871,"ĠbaÅŁkent":8872,"Ġbekliyorum":8873,"ĠgereÄŁ":8874,"ĠsatÄ±cÄ±":8875,"ĠÃ§adÄ±r":8876,"ĠarayÄ±ÅŁ":8877,"$$Ã¢b":8878,"$$gelen":8879,"Ġmert":8880,"Ġ2003":8881,"ĠÃ¾":8882,"Ġopsiyon":8883,"Ġvermeden":8884,"ĠfÄ±ndÄ±k":8885,"Ġoksi":8886,"$$Ä±ÅŁlÄ±":8887,"Ġikamet":8888,"ĠaÄŁrÄ±sÄ±":8889,"ĠyaptÄ±ÄŁÄ±m":8890,"$$gÃ¶l":8891,"ĠgÃ¶rÃ¼lÃ¼yor":8892,"$$yorum":8893,"ĠvurguladÄ±":8894,"Ġharic":8895,"$$laj":8896,"ĠÅŁampiyonasÄ±":8897,"Ġmaddenin":8898,"kÄ±z":8899,"ĠsandÄ±k":8900,"Ġhani":8901,"2011":8902,"Ġreferandum":8903,"Ġmahmut":8904,"bÃ¼tÃ¼n":8905,"Ġnoktaya":8906,"Ġhayli":8907,"Ġevli":8908,"Ġgirip":8909,"Ġtarihlerinde":8910,"Ġborc":8911,"Ġtrabzonspor":8912,"Ġked":8913,"ĠdavasÄ±":8914,"sh":8915,"Ġpatates":8916,"Ġdersleri":8917,"ĠduyduÄŁu":8918,"ĠdaÄŁÄ±lÄ±m":8919,"Ġotomotiv":8920,"32":8921,"ĠdayanÄ±ÅŁma":8922,"Ġyemin":8923,"Ġkurdu":8924,"$$oli":8925,"Ġsomut":8926,"Ġbalkan":8927,"$$danÄ±n":8928,"Ġkuvvetli":8929,"ĠrÃ¼ya":8930,"$$Ã¼nc":8931,"Ġdostu":8932,"$$th":8933,"ĠkarmaÅŁÄ±k":8934,"ĠyaÅŁa":8935,"Ġmasal":8936,"Ġistifa":8937,"ĠgirmiÅŁ":8938,"Ġturan":8939,"$$azz":8940,"Ġemeklilik":8941,"ĠÃ§Ä±kmak":8942,"$$azÄ±ÄŁ":8943,"Ġtemsilcileri":8944,"Ġbilgilendirme":8945,"$$Ñģ":8946,"Ġturu":8947,"$$tihar":8948,"ĠÃ¼lkeleri":8949,"Ġeserleri":8950,"Ġkl":8951,"ĠoluÅŁturul":8952,"$$uluÄŁu":8953,"ĠÃ§Ä±rp":8954,"ĠmÃ¼lt":8955,"$$yacaÄŁÄ±z":8956,"ĠlayÄ±k":8957,"$$taÃ§":8958,"$$ux":8959,"ĠolmasÄ±ndan":8960,"ĠayrÄ±lan":8961,"Ġterim":8962,"ĠÅŁehirde":8963,"Ġantrenman":8964,"ĠbinasÄ±":8965,"ĠsigortalÄ±":8966,"Ġokuyucu":8967,"Ġmevki":8968,"ĠmenÃ¼":8969,"ĠkurÅŁ":8970,"Ġalerj":8971,"$$stri":8972,"Ġsenaryo":8973,"ĠduÅŁ":8974,"ĠprogramÄ±nda":8975,"$$olik":8976,"ĠyÃ¼kselen":8977,"alman":8978,"$$alarca":8979,"ĠverdiÄŁimiz":8980,"$$ebilirim":8981,"Ġduyurdu":8982,"$$amÄ±yorum":8983,"Ġlav":8984,"Ġfre":8985,"ĠkÄ±zlar":8986,"Ġveriyoruz":8987,"Ġdahilinde":8988,"$$madÄ±m":8989,"Ġkrizi":8990,"Ġbirinde":8991,"Ġtoplama":8992,"$$ilde":8993,"Ġdenen":8994,"ĠbaÅŁkanÄ±mÄ±z":8995,"Ã¼Ã§":8996,"ĠhaftasÄ±":8997,"$$zir":8998,"Ġistemez":8999,"ĠihtiyaÃ§larÄ±nÄ±":9000,"tir":9001,"$$Ã¥":9002,"Ġordusu":9003,"ĠaÅŁÄ±":9004,"Ġresm":9005,"Ġaskerlik":9006,"$$faiye":9007,"Ġmum":9008,"Ġtespiti":9009,"Ġalbay":9010,"$$kent":9011,"ĠÃ§if":9012,"ĠÃ§alÄ±ÅŁtÄ±":9013,"ĠsektÃ¶rÃ¼n":9014,"Ġolursunuz":9015,"ĠÅŁeytan":9016,"Ġgetirildi":9017,"Ġdoz":9018,"$$lediÄŁimiz":9019,"Ġprog":9020,"$$ahmet":9021,"ĠiÅŁten":9022,"36":9023,"Ġcis":9024,"ĠiÅŁit":9025,"$$uyordu":9026,"tesi":9027,"$$Ä±nÄ±zdan":9028,"hak":9029,"Ġgittim":9030,"Ġkomik":9031,"$$dÄ±ÄŁÄ±nÄ±zda":9032,"Ġdinle":9033,"ĠyolculuÄŁ":9034,"Ġilham":9035,"lerin":9036,"Ġsoya":9037,"ist":9038,"kÃ¶":9039,"Ġkale":9040,"ĠsayÄ±lÄ±r":9041,"nÅŁallah":9042,"$$cin":9043,"ĠoperatÃ¶r":9044,"$$kek":9045,"$$alarÄ±yla":9046,"$$cev":9047,"Ġokuyan":9048,"ĠoÄŁlum":9049,"$$sÃ¼n":9050,"tarih":9051,"Ġgalax":9052,"baÅŁkan":9053,"Ġeti":9054,"Ġkib":9055,"$$ÄŁiyle":9056,"re":9057,"ĠbÃ¶cek":9058,"ĠÅŁehirler":9059,"gÃ¶z":9060,"Ġkaraman":9061,"Ġlaboratuvar":9062,"ĠkatlÄ±":9063,"ĠmÃ¼thiÅŁ":9064,"Ġdk":9065,"$$tiÄŁiniz":9066,"$$ph":9067,"$$Ä±lmalÄ±dÄ±r":9068,"Ġerkeklerin":9069,"$$Ã¢z":9070,"Ġzik":9071,"ĠgerÃ§ekleÅŁtirdi":9072,"ĠcezalandÄ±r":9073,"Ġverip":9074,"$$larÄ±mÄ±zda":9075,"Ġ56":9076,"ĠsÃ¼rdÃ¼rÃ¼yor":9077,"ĠyapÄ±lacaktÄ±r":9078,"ĠbardaÄŁÄ±":9079,"Ġdergi":9080,"Ġgerilim":9081,"ĠuyandÄ±r":9082,"Ġvarsay":9083,"ĠfotoÄŁraflarÄ±":9084,"ĠkurallarÄ±":9085,"Ġgereksiz":9086,"$$Ä±cÄ±nÄ±n":9087,"Ġgalaxy":9088,"ĠsÃ¼resince":9089,"ĠyukarÄ±daki":9090,"ĠelazÄ±ÄŁ":9091,"$$caÄŁÄ±m":9092,"Ġyaratan":9093,"$$yat":9094,"Ġmusunuz":9095,"ĠtadÄ±nÄ±":9096,"Ġkaynaklar":9097,"Ġyerinden":9098,"$$madÄ±ÄŁÄ±nÄ±":9099,"Ġediyorlar":9100,"$$eyt":9101,"Ġkocaman":9102,"Ġtopar":9103,"lan":9104,"Ġyunus":9105,"$$ladÄ±m":9106,"$$ish":9107,"yla":9108,"ĠinanÄ±yorum":9109,"Ġnelerdir":9110,"ĠkadÄ±na":9111,"Ġolgu":9112,"$$hid":9113,"spor":9114,"$$ink":9115,"ĠaldÄ±ÄŁÄ±m":9116,"ĠsÃ¶yledik":9117,"ĠyazdÄ±":9118,"$$unÃ§":9119,"Ġserver":9120,"ĠgirdiÄŁi":9121,"Ġ@":9122,"ĠattÄ±ÄŁÄ±":9123,"Ġbelirlendi":9124,"Ġtarihe":9125,"Ġfav":9126,"ĠyarattÄ±ÄŁÄ±":9127,"ĠgeÃ§miÅŁte":9128,"ĠolmanÄ±z":9129,"Ġkendimizi":9130,"$$malarÄ±nÄ±n":9131,"ĠeÄŁlenc":9132,"Ġms":9133,"ĠaldÄ±klarÄ±":9134,"Ġiftar":9135,"ĠgeÃ§tik":9136,"ĠgerÃ§ekleÅŁtirilecek":9137,"ĠbaÅŁladÄ±k":9138,"ĠdÃ¼nyasÄ±nda":9139,"ĠcÃ¼mle":9140,"ĠdÃ¶ndÃ¼r":9141,"Ġtoplanan":9142,"$$eten":9143,"Ġneh":9144,"ĠatÄ±lan":9145,"Ġded":9146,"Ġkorkut":9147,"$$oni":9148,"ĠtÃ¼rkÃ¼":9149,"ĠyarÄ±sÄ±":9150,"ĠÅŁimdiye":9151,"sveÃ§":9152,"ĠsÃ¶zlerine":9153,"Ġkira":9154,"ĠhÃ¢lÃ¢":9155,"Ġvil":9156,"$$Ã¼lÃ¼ÄŁ":9157,"ĠbÃ¶lgedeki":9158,"Ġcah":9159,"ĠkullanÄ±r":9160,"$$emeyecek":9161,"Ġelini":9162,"liÅŁkin":9163,"ĠoynadÄ±ÄŁÄ±":9164,"ĠmaÃ§Ä±n":9165,"Ġsevilen":9166,"deniz":9167,"ĠiÅŁlen":9168,"ĠseÃ§in":9169,"$$ongul":9170,"Ġhukuku":9171,"$$ahya":9172,"cumhurbaÅŁkanÄ±":9173,"$$ilmeye":9174,"ĠyapÄ±yorum":9175,"$$luÄŁunda":9176,"Ġbeyler":9177,"ĠbÃ¶brek":9178,"Ġdurumuna":9179,"$$yalÄ±m":9180,"$$epe":9181,"$$Ä±sÄ±ndaki":9182,"Ġmaddesinde":9183,"Ġmimari":9184,"ĠkudÃ¼s":9185,"$$laÅŁtÄ±rma":9186,"Ġerdi":9187,"$$caÄŁÄ±na":9188,"osman":9189,"Ġnitelikli":9190,"ĠgÃ¼zer":9191,"$$onguldak":9192,"Ġotopark":9193,"$$inizle":9194,"ini":9195,"ĠuygulanmasÄ±":9196,"hem":9197,"ĠistediÄŁim":9198,"Ġpartner":9199,"Ġsorgulama":9200,"33":9201,"$$Ä±lmÄ±ÅŁtÄ±":9202,"Ġsiteler":9203,"ĠbaÅŁvurusu":9204,"$$eleme":9205,"Ġmantar":9206,"Ġhedefi":9207,"$$astik":9208,"ĠdÃ¼ÅŁÃ¼nen":9209,"ĠsorunlarÄ±n":9210,"Ġgelmez":9211,"Ġnakit":9212,"ĠdÃ¼ÅŁer":9213,"ĠsayÄ±sÄ±nÄ±":9214,"Ġnitekim":9215,"Ġalem":9216,"ĠbÃ¼yÃ¼klÃ¼ÄŁ":9217,"sadece":9218,"ĠdÃ¶nÃ¼m":9219,"ĠÅŁansÄ±":9220,"ĠbaÅŁrol":9221,"Ġili":9222,"dur":9223,"Ġhangisi":9224,"haf":9225,"ĠyÄ±llarÄ±n":9226,"$$ceÄŁiz":9227,"Ġmeme":9228,"Ġresmen":9229,"ĠtaÅŁÄ±macÄ±lÄ±k":9230,"ĠkampanyasÄ±":9231,"$$40":9232,"Ġarazi":9233,"$$ÄŁrul":9234,"ĠkanalÄ±":9235,"Ġoyla":9236,"Ġyoldan":9237,"tem":9238,"Ġenerjisi":9239,"ĠkonularÄ±nda":9240,"bÃ¶yle":9241,"ncel":9242,"Ġpaketi":9243,"ĠkÃ¶mÃ¼r":9244,"Ġstandar":9245,"Ġ57":9246,"Ġgerektiren":9247,"Ġbitkisel":9248,"mah":9249,"$$ustr":9250,"ĠmÃ¼kellef":9251,"ĠgeliÅŁtirilen":9252,"Ġendeksi":9253,"ĠinsanlÄ±k":9254,"ĠyapÄ±ldÄ±ÄŁÄ±nÄ±":9255,"Ġoyuncusu":9256,"$$Ä±lacaÄŁÄ±nÄ±":9257,"$$obi":9258,"$$avÃ¼z":9259,"$$uyorlar":9260,"ĠyayÄ±nlandÄ±":9261,"$$hats":9262,"bab":9263,"Ġhadi":9264,"ĠmÃ¼f":9265,"ĠmaÄŁlup":9266,"ĠhÃ¼cre":9267,"ĠaÃ§Ä±lmasÄ±":9268,"ĠyÃ¼cel":9269,"Ã¶ncelikle":9270,"ĠsigortasÄ±":9271,"bar":9272,"ĠkÃ¶ÅŁe":9273,"Ġpeynir":9274,"Ġkurab":9275,"Ġiktid":9276,"ĠtaÅŁÄ±t":9277,"$$Ä±ÅŁÄ±klÄ±k":9278,"ĠartÄ±":9279,"yine":9280,"uzun":9281,"Ġmineral":9282,"ĠaÃ§Ä±l":9283,"ĠkollarÄ±":9284,"$$Ã§Ä±lar":9285,"$$Ã¼minyum":9286,"Ġikna":9287,"$$aport":9288,"ĠgÃ¶revleri":9289,"Ġtesisleri":9290,"ĠyÃ¶neticisi":9291,"$$izmi":9292,"ĠyapacaÄŁÄ±z":9293,"Ġgelecekte":9294,"Ġetmekte":9295,"kÄ±s":9296,"ĠÅŁartlar":9297,"ĠaÃ§ar":9298,"$$encere":9299,"$$ayÄ±p":9300,"ĠÃ¼yelerinin":9301,"Ġdavut":9302,"$$ileriyle":9303,"Ġdolap":9304,"hiÃ§":9305,"kah":9306,"ĠÃ¶ldÃ¼":9307,"$$eveyn":9308,"ĠbaÅŁa":9309,"Ġadnan":9310,"ĠhÃ¢kim":9311,"Ġresul":9312,"Ġukrayna":9313,"$$Ã¢lÃ¢":9314,"Ġila":9315,"sur":9316,"Ġpasta":9317,"af":9318,"yet":9319,"ĠpiyasasÄ±":9320,"Ġgetirerek":9321,"ĠÃ§alÄ±ÅŁÄ±rken":9322,"Ġtank":9323,"Ġkararlar":9324,"$$tezi":9325,"ĠbakÄ±ldÄ±ÄŁÄ±nda":9326,"Ġtarafta":9327,"Ġkanaat":9328,"Ġetkileyen":9329,"ĠyapÄ±ÅŁ":9330,"ĠkoordinatÃ¶r":9331,"ha":9332,"Ġbelirlenmesi":9333,"Ġtarihinin":9334,"ĠkÄ±zar":9335,"Ġsalonunda":9336,"Ġmaddeleri":9337,"âĢĿ.":9338,"Ġmax":9339,"Ġkooperatif":9340,"$$Ã½l":9341,"$$22":9342,"Ġreform":9343,"ĠihtiyacÄ±nÄ±z":9344,"ĠÃ¶zelliklerini":9345,"Ġhissettir":9346,"??":9347,"Ġbirde":9348,"$$mektir":9349,"$$iret":9350,"ĠmaÄŁaza":9351,"Ġsekreteri":9352,"Ġkasa":9353,"ĠdediÄŁimiz":9354,"ĠemeÄŁi":9355,"Ġdizay":9356,"Ġboyutlu":9357,"$$mik":9358,"Ġaleyh":9359,"ĠiÅŁtir":9360,"ĠgeÃ§iren":9361,"yÃ¼ksek":9362,"ĠrazÄ±":9363,"Ġkurucusu":9364,"$$larÄ±mÄ±zdan":9365,"Ġmemleket":9366,"$$ekte":9367,"$$))":9368,"bn":9369,"Ġ06":9370,"Ġlif":9371,"Ġsitenin":9372,"$$rid":9373,"!..":9374,"Ġcengiz":9375,"sÃ¼r":9376,"$$acaksÄ±nÄ±z":9377,"$$ubu":9378,"dÄ±r":9379,"$$iÅŁah":9380,"Ġmerkezli":9381,"$$tv":9382,"Ġharam":9383,"ĠtÄ±rnak":9384,"$$cili":9385,"$$maraÅŁ":9386,"Ġhatun":9387,"Ġhizmetlerini":9388,"kom":9389,"Ġdalga":9390,"Ġbirbirlerine":9391,"$$tas":9392,"Ġkpss":9393,"Ġdonat":9394,"Ġmaliyeti":9395,"Ġkonusundaki":9396,"Ġkentsel":9397,"Ġbankalar":9398,"Ġedilecektir":9399,"Ġkonf":9400,"$$bb":9401,"Ġyolun":9402,"$$ith":9403,"tab":9404,"Ġkenti":9405,"Ġkos":9406,"Ġray":9407,"ĠyaÅŁandÄ±":9408,"Ġeli":9409,"ĠbÃ¶lÃ¼mÃ¼nÃ¼":9410,"ĠÅŁirketlerin":9411,"$$olar":9412,"Ġadresine":9413,"Ġsponsor":9414,"Ġilgilendir":9415,"ĠmeÅŁru":9416,"ĠaÄŁÄ±":9417,"Ġrep":9418,"Ġapartman":9419,"Ġlojistik":9420,"ĠbaÅŁlay":9421,"Ġpiyan":9422,"fet":9423,"Ġseviyesi":9424,"Ġviz":9425,"Ġram":9426,"Ġakrab":9427,"ĠsaÄŁladÄ±ÄŁÄ±":9428,"Ġkef":9429,"Ġedilmelidir":9430,"ĠkurulmasÄ±":9431,"ĠkardeÅŁim":9432,"arkadaÅŁ":9433,"$$evler":9434,"Ġmete":9435,"Ġhatip":9436,"$$ãģ":9437,"ĠeÄŁilim":9438,"$$tl":9439,"ĠyapÄ±lmasÄ±na":9440,"Ġesir":9441,"ĠÃ¶ncÃ¼":9442,"okul":9443,"ĠhÃ¼kÃ¼mleri":9444,"Ġcehen":9445,"ĠtÄ±klayÄ±nÄ±z":9446,"Ġparlamen":9447,"Ã§Ã¼nkÃ¼":9448,"ĠisteÄŁi":9449,"Ġemanet":9450,"ĠÃ¶ncelikli":9451,"kitap":9452,"ĠarÄ±za":9453,"Ġcd":9454,"$$Ã½k":9455,"kr":9456,"ĠdÃ¼nyasÄ±nÄ±n":9457,"$$fÃ¶y":9458,"Ġbulgu":9459,"ĠaydÄ±nlatma":9460,"$$irdaÄŁ":9461,"ĠsayfasÄ±nda":9462,"ĠÃ§alÄ±ÅŁanlarÄ±":9463,"daresi":9464,"ĠdÃ¶nen":9465,"ĠkÃ¼rd":9466,"ĠyaptÄ±rÄ±m":9467,"ban":9468,"tel":9469,"ĠyÃ¶nlÃ¼":9470,"Ġkatliam":9471,"Ġsezonu":9472,"Ġbam":9473,"ĠoluÅŁmaktadÄ±r":9474,"Ġusb":9475,"ĠsÃ¼rdÃ¼":9476,"Ġetmel":9477,"ĠÃ¶yk":9478,"$$ebir":9479,"Ġaittir":9480,"antalya":9481,"$$ceÄŁim":9482,"ĠpiÅŁman":9483,"Ġmezh":9484,"$$laÅŁmasÄ±":9485,"Ġkimya":9486,"Ġbrez":9487,"ĠkÃ¶rfez":9488,"Ġ63":9489,"Ġebu":9490,"Ġtokat":9491,"fa":9492,"Ġtetik":9493,"kullan":9494,"Ġtencer":9495,"$$ysanÄ±z":9496,"Ġengin":9497,"$$olata":9498,"Ġkont":9499,"$$aci":9500,"Ġtaht":9501,"ĠnamazÄ±":9502,"Ġsaptan":9503,"Ġbelgesel":9504,"ĠyazdÄ±r":9505,"ĠyÃ¼ksekÃ¶ÄŁretim":9506,"Ġdolara":9507,"Ġispat":9508,"Ġkars":9509,"Ġproblemi":9510,"ĠbebeÄŁin":9511,"ĠkatÄ±lmak":9512,"Ġtoto":9513,"Ġdog":9514,"ĠyÃ¼zme":9515,"Ġdetaylar":9516,"$$hisar":9517,"$$hatsapp":9518,"sal":9519,"Ġtarihsel":9520,"$$amadÄ±":9521,"Ġwor":9522,"$$tÃ¼ÄŁÃ¼":9523,"fir":9524,"Ġfilmde":9525,"ĠulaÅŁan":9526,"Â»":9527,"$$rib":9528,"Ġsatan":9529,"Ġtarifleri":9530,"Ġabi":9531,"Ġakar":9532,"ĠgenÃ§lerin":9533,"$$alarak":9534,"amer":9535,"Ġfrek":9536,"hracat":9537,"Ġokulda":9538,"ĠkÃ¼m":9539,"Ġgenetik":9540,"Ġyazmak":9541,"$$Ä±tma":9542,"Ġintik":9543,"Ġhaberine":9544,"ĠiÅŁveren":9545,"Ġmisyon":9546,"Ġalp":9547,"ĠkÄ±yasla":9548,"versi":9549,"Ġbirikim":9550,"Ġzorla":9551,"$$lenerek":9552,"ĠpuanÄ±":9553,"ĠgÃ¶rÃ¼nÃ¼r":9554,"ĠartÄ±ÅŁÄ±":9555,"$$likten":9556,"ĠyÃ¼kseldi":9557,"$$lediÄŁini":9558,"$$inler":9559,"Ġkurtu":9560,"ĠÃ§anta":9561,"$$cÄ±larÄ±n":9562,"ĠgeÃ§irdi":9563,"$$kul":9564,"Ġklas":9565,"Ġkeyfini":9566,"$$dd":9567,"Ġingiliz":9568,"ĠÃ¶nemini":9569,"ĠseviÅŁ":9570,"$$habalar":9571,"Ġhaliyle":9572,"Ġpiyasada":9573,"$$uyla":9574,"$$halde":9575,"ĠiliÅŁkisi":9576,"Ġklav":9577,"$$lanmaz":9578,"baÄŁ":9579,"Ġelma":9580,"âĢº":9581,"$$66":9582,"ĠverdiÄŁini":9583,"Ġ03":9584,"ĠtÃ¼rkler":9585,"ĠyazÄ±lar":9586,"Ġers":9587,"ĠtÃ¼zel":9588,"ĠbaÅŁarÄ±yla":9589,"$$Ã½nda":9590,"Ġbuhar":9591,"ĠvarmÄ±ÅŁ":9592,"ĠparÃ§alar":9593,"ĠiÃ§erisindeki":9594,"$$tikleri":9595,"$$etli":9596,"ĠanlatÄ±":9597,"Ġtakvim":9598,"$$usun":9599,"ĠhÃ¼kÃ¼metin":9600,"ĠaracÄ±lÄ±ÄŁÄ±":9601,"Ġkanseri":9602,"ĠnÃ¶bet":9603,"ĠbÃ¶lgelerde":9604,"$$iÄŁit":9605,"mut":9606,"ĠÅŁerif":9607,"Ġavm":9608,"ĠdÃ¼ÅŁÃ¼nceler":9609,"Ġsiteniz":9610,"$$akende":9611,"ĠÃ¼rÃ¼nlerini":9612,"aslÄ±nda":9613,"Ġteminat":9614,"ĠÃ§Ã¼r":9615,"Ġarke":9616,"Ġsark":9617,"75":9618,"$$ebilirler":9619,"$$ranÄ±":9620,"ĠmÃ¼racaat":9621,"ĠhayatÄ±nÄ±n":9622,"ĠyakÄ±nda":9623,"ĠsÃ¼rÃ¼ÅŁ":9624,"$$nav":9625,"$$tah":9626,"ro":9627,"Ġtitr":9628,"Ġsebz":9629,"ĠtecavÃ¼z":9630,"ĠÃ¼nit":9631,"$$leyic":9632,"ĠgÃ¶rmez":9633,"ĠkomutanlÄ±ÄŁÄ±":9634,"ĠbuÄŁday":9635,"ĠyapÄ±landÄ±r":9636,"$$Ð¸":9637,"Ġevlat":9638,"Ġcad":9639,"ĠpÃ¼r":9640,"ĠgeliÅŁmeleri":9641,"ĠaslÄ±":9642,"hep":9643,"ĠeÄŁitime":9644,"ĠgÃ¼reÅŁ":9645,"Ġyuvarlak":9646,"Ġpomp":9647,"Ġkredisi":9648,"$$feri":9649,"Ġizleme":9650,"ĠbankacÄ±lÄ±k":9651,"ĠtecrÃ¼beli":9652,"Ġ52":9653,"ĠsuÃ§lu":9654,"ĠkullanÄ±lacak":9655,"Ġuzanan":9656,"ĠkaymakamÄ±":9657,"ĠkÄ±zÄ±n":9658,"$$dunuz":9659,"ĠtecrÃ¼be":9660,"Ġkaptan":9661,"$$sus":9662,"Ġekleyin":9663,"Ġsarf":9664,"not":9665,"Ġmenf":9666,"$$arm":9667,"Ġhastanede":9668,"ĠsaÄŁlayacaktÄ±r":9669,"yÃ¶n":9670,"ĠyazÄ±lan":9671,"ĠgÃ¶zy":9672,"ĠgeÃ§ecek":9673,"ĠadamlarÄ±":9674,"$$ie":9675,"Ġpul":9676,"$$Ã®n":9677,"ĠyapacaÄŁÄ±nÄ±z":9678,"Ġ81":9679,"br":9680,"$$alÄ±yor":9681,"ĠyÃ¶neticileri":9682,"Ġkanununun":9683,"ĠfÄ±rat":9684,"Ġerg":9685,"Ġkalitesini":9686,"Ġsirk":9687,"$$tisiz":9688,"Ġzeyn":9689,"ĠkatÄ±lÄ±mÄ±yla":9690,"Ġcenaze":9691,"ĠnoktalarÄ±":9692,"$$ebileceÄŁini":9693,"Ġprogramlar":9694,"can":9695,"Ġkdv":9696,"Ġavustur":9697,"ĠdeÄŁiÅŁtirme":9698,"$$Ä±rt":9699,"ĠherÅŁ":9700,"ĠsÃ¼rdÃ¼ren":9701,"Ġvesile":9702,"$$uÄŁ":9703,"$$atan":9704,"ĠÅŁekeri":9705,"ĠolsaydÄ±":9706,"$$incan":9707,"Ġduv":9708,"$$lilerin":9709,"Ġdeg":9710,"ĠsevdiÄŁim":9711,"ĠgÃ¶zÃ¼":9712,"ĠhaftanÄ±n":9713,"Ġpast":9714,"lgi":9715,"Ġzer":9716,"Ġolursak":9717,"ĠdÃ¶nÃ¼k":9718,"$$larsa":9719,"Ġarma":9720,"ĠyoÄŁurt":9721,"Ġrica":9722,"Ġsiteye":9723,"Ġyetkilileri":9724,"ĠyapÄ±labil":9725,"ĠkÄ±rsal":9726,"55":9727,"bi":9728,"ĠyaÅŁamÄ±ÅŁ":9729,"Ġteknikleri":9730,"Ġcemal":9731,"ĠgÃ¼ncelleme":9732,"$$landÄ±rma":9733,"ĠkullanÄ±ldÄ±ÄŁÄ±":9734,"Ġsaatlik":9735,"ĠbabasÄ±nÄ±n":9736,"Ġhissede":9737,"34":9738,"ĠgÃ¶rÃ¼ldÃ¼":9739,"Ġambul":9740,")âĢĻ":9741,"Ġilim":9742,"ĠÅŁap":9743,"Ġoperasyonu":9744,"ĠalÃ¼minyum":9745,"Ġbilmek":9746,"Ġaynen":9747,"Ġ07":9748,"Ġadresinden":9749,"Ġbot":9750,"Ġonar":9751,"Ġtahsis":9752,"ĠrÃ¼yada":9753,"Ġizmir":9754,"$$kÃ¼dar":9755,"Ġzeka":9756,"Ġhost":9757,"Ġyerin":9758,"$$tml":9759,"Ġkendisinden":9760,"$$menize":9761,"$$melerine":9762,"ĠtanÄ±ma":9763,"$$Ä±ra":9764,"ĠaldÄ±ÄŁÄ±nÄ±z":9765,"ĠkullanÄ±n":9766,"yukarÄ±":9767,"ĠsensÃ¶r":9768,"ĠdoÄŁdu":9769,"$$unt":9770,"Ġebeveyn":9771,"$$olojisi":9772,"$$low":9773,"ĠdÃ¼zeni":9774,"$$sp":9775,"Ġizleyic":9776,"eÅŁ":9777,"Ġkablosuz":9778,"ĠcevaplarÄ±":9779,"Ġsef":9780,"ĠartÄ±yor":9781,"tam":9782,"Ġhikayesi":9783,"$$istler":9784,"Ġtehlike":9785,"ĠÃ§Ä±ÄŁ":9786,"ĠharitasÄ±":9787,"Ġ85":9788,"Ġdepresyon":9789,"ĠgeÃ§tiÄŁi":9790,"ĠaÃ§tÄ±ÄŁÄ±":9791,"ĠartmasÄ±":9792,"ĠsÄ±nava":9793,"ĠgitmiÅŁ":9794,"ĠkÄ±t":9795,"Ġdamla":9796,"ĠbaÅŁbakanÄ±":9797,"ĠbilinÃ§li":9798,"Ġ61":9799,"$$Ã»r":9800,"$$Ã¼ÄŁÃ¼":9801,"ĠÃ§alÄ±ÅŁmalarÄ±nÄ±n":9802,"$$99":9803,"ĠseÃ§imleri":9804,"ĠaraÃ§larÄ±n":9805,"milli":9806,"Ġfakir":9807,"ĠparayÄ±":9808,"ĠmimarlÄ±k":9809,"$$rd":9810,"ĠayÄ±nÄ±n":9811,"ĠsÃ¶zlerini":9812,"!\"":9813,"ĠedildiÄŁini":9814,"$$Ã¼nÃ¼zÃ¼":9815,"$$acasÄ±":9816,"Ġoldug":9817,"ster":9818,"Ġbakter":9819,"ĠgeliÅŁtirilmesi":9820,"Ġsw":9821,"ĠfazlasÄ±yla":9822,"$$sm":9823,"am":9824,"Ġmetrekare":9825,"ĠkaygÄ±":9826,"$$faf":9827,"Ġserin":9828,"Ġcild":9829,"Ġsordu":9830,"$$hk":9831,"Ġkatil":9832,"ĠaÅŁamada":9833,"ĠvarlÄ±ÄŁÄ±nÄ±":9834,"herk":9835,"Ġsosy":9836,"ĠdoÄŁumlu":9837,"hayat":9838,"Ġtesli":9839,"Ġmardin":9840,"ĠbaÄŁlÄ±dÄ±r":9841,"Ġokumaya":9842,"Ġunutma":9843,"Ġsy":9844,"$$Ã§Ã¼":9845,"Ġhop":9846,"Ġmc":9847,"Ġtet":9848,"$$leÅŁmiÅŁ":9849,"ĠdilediÄŁiniz":9850,"aÄŁ":9851,"ĠgÃ¼ncellem":9852,"Ġ95":9853,"Â°":9854,"$$Ã¼rler":9855,"Ġtabir":9856,"ĠaÃ§Ä±klan":9857,"ĠgerÃ§ekleÅŁtirdiÄŁi":9858,"ĠsorumluluÄŁ":9859,"Ġsuper":9860,"Ġkaleme":9861,"$$barat":9862,"ĠyaÅŁamÄ±":9863,"Ġkole":9864,"$$ont":9865,"$$lerimizden":9866,"ĠÃ§orb":9867,"$$sinin":9868,"ĠâĨ":9869,"Ġkurma":9870,"Ġsalat":9871,"Ġetkisini":9872,"gÃ¼zel":9873,"ĠyenilikÃ§i":9874,"ĠiÃ§e":9875,"Ġvakti":9876,"Ġkis":9877,"$$avv":9878,"Ġeminim":9879,"Ġertesi":9880,"Ġfah":9881,"sk":9882,"$$âĢľ":9883,"$$tic":9884,"Ġunvan":9885,"Ġserp":9886,"ĠoluÅŁuyor":9887,"$$lerimizde":9888,"ĠtasarlanmÄ±ÅŁ":9889,"Ġheyeti":9890,"Ġreak":9891,"ĠÃ¼zÃ¼n":9892,"ĠkullanÄ±ma":9893,"ĠÃ§alÄ±ÅŁanlarÄ±n":9894,"ĠbÄ±rakÄ±p":9895,"$$ora":9896,"$$ason":9897,"Ġmidir":9898,"Ġprop":9899,"ĠyÃ¼klÃ¼":9900,"Ġdiyanet":9901,"ĠtÄ±klayarak":9902,"ĠgiriÅŁi":9903,"Ġrev":9904,"ĠÃ¼zÃ¼m":9905,"ĠayrÄ±c":9906,"Ġmuhabbet":9907,"Ġanket":9908,"kÃ¼Ã§":9909,"ĠkurduÄŁu":9910,"$$alanÄ±":9911,"ĠmillÃ®":9912,"Ġkktc":9913,"sviÃ§":9914,"Ġzihn":9915,"$$Ä±plak":9916,"ĠkiÅŁiden":9917,"Ġberek":9918,"di":9919,"Ġsempoz":9920,"ĠarapÃ§a":9921,"ĠÃ§Ã¶zÃ¼nÃ¼r":9922,"ĠarttÄ±":9923,"the":9924,"ĠhazÄ±rladÄ±ÄŁÄ±":9925,"Ġetsin":9926,"Ġlar":9927,"ĠdeÄŁerlendirilmesi":9928,"$$amanÄ±n":9929,"ĠyurtdÄ±ÅŁÄ±":9930,"ĠÅŁarap":9931,"Ġkokusu":9932,"Ġmahkum":9933,"Ġaut":9934,"Ġithalat":9935,"ĠyÃ¼kseliÅŁ":9936,"$$sine":9937,"Ġetkinlikler":9938,"Ġburak":9939,"Ġetmeden":9940,"Ġ02":9941,"Ġgelebilir":9942,"Ġotelleri":9943,"Ġyep":9944,"ĠdÄ±ÅŁarÄ±dan":9945,"ĠpÄ±r":9946,"$$Ã§uklu":9947,"Ġgene":9948,"$$osunu":9949,"pol":9950,"Ġrize":9951,"Ġistemiyor":9952,"artÄ±k":9953,"Ġisminin":9954,"Ġdown":9955,"Ġmemnuniyeti":9956,"$$lamanÄ±n":9957,"$$iriz":9958,"Ġkimdir":9959,"Ġlat":9960,"ĠaklÄ±ma":9961,"Ġfidan":9962,"ĠmÃ¼steÅŁ":9963,"ĠyayÄ±ncÄ±lÄ±k":9964,"ĠsÄ±kÃ§a":9965,"ĠÃ§ekme":9966,"$$kender":9967,"ĠgiriÅŁimi":9968,"Ġdegil":9969,"$$mayacaktÄ±r":9970,"Ġnil":9971,"$$larÄ±nÄ±zda":9972,"ĠhaklarÄ±nÄ±":9973,"Ġmusa":9974,"ĠsÃ¼":9975,"ĠÃ¶ÄŁretmeni":9976,"Ġturkcell":9977,"$$duklarÄ±nÄ±":9978,"Ġkusursuz":9979,"ĠsikiÅŁ":9980,"ĠtÃ¼rleri":9981,"ĠÃ§Ä±lgÄ±n":9982,"Ġrenkler":9983,"ĠÃ¼lkeyi":9984,"ĠÅŁam":9985,"$$onomik":9986,"Ġyollar":9987,"ĠdirenÃ§":9988,"Ġtrt":9989,"Ġbelediyespor":9990,"Ġsofr":9991,"$$ington":9992,"ĠaklÄ±m":9993,"ĠihtiyaÃ§larÄ±":9994,"Ġkesintisiz":9995,"Ġvideosu":9996,"ĠatÄ±ÅŁ":9997,"Ġbilmeyen":9998,"ĠÅŁofÃ¶r":9999,"Ġbant":10000,"Ġdostluk":10001,"ĠolabileceÄŁini":10002,"$$salar":10003,"aa":10004,"ĠbaÄŁlantÄ±sÄ±":10005,"$$Ã¼sÃ¼nde":10006,"ĠsevinÃ§":10007,"$$buki":10008,"ĠdeÄŁilse":10009,"$$ald":10010,"$$ilmesinin":10011,"$$parta":10012,"$$arda":10013,"$$apÄ±":10014,"$$losu":10015,"2010":10016,"ĠimkansÄ±z":10017,"ĠbaÅŁlayarak":10018,"$$acaÄŁÄ±na":10019,"ĠhastalarÄ±n":10020,"Ġherhalde":10021,"Ġergen":10022,"ĠyapÄ±ya":10023,"ĠiÃ§ten":10024,"ĠgereÄŁince":10025,"ĠkazanÄ±m":10026,"ĠgeleceÄŁe":10027,"Ġreg":10028,"$$berg":10029,"ĠtÄ±rman":10030,"ĠbÃ¶r":10031,"ĠgÃ¼Ã§leri":10032,"Ġkadrosu":10033,"ĠbaÅŁlÄ±ca":10034,"Ġmuhalif":10035,"$$lash":10036,"ĠkurÅŁun":10037,"Ġgelsin":10038,"$$yak":10039,"ĠgÃ¶stergesi":10040,"ĠgeÃ§irdiÄŁi":10041,"Ġortala":10042,"Ġneg":10043,"Ġeksiksiz":10044,"$$Ã¼ldÃ¼ÄŁÃ¼":10045,"ĠsevdiÄŁi":10046,"ĠÃ§alÄ±ÅŁmalara":10047,"$$abildi":10048,"Ġepey":10049,"inde":10050,"Ġinter":10051,"$$ÑĢ":10052,"ĠiÅŁlemlerini":10053,"Ġsahada":10054,"ĠÃ§ekilen":10055,"Ġelden":10056,"Ġhazine":10057,"Ġanma":10058,"Ġailesinin":10059,"Ġdurumunu":10060,"Ġeren":10061,"Ġfrekans":10062,"$$emedim":10063,"ĠmÃ¼cadelesi":10064,"Ġgirerek":10065,"Ġhayati":10066,"ĠyÄ±llarca":10067,"ĠadÄ±yaman":10068,"Ġkime":10069,"ĠakÅŁ":10070,"Ġdersler":10071,"$$cam":10072,"ĠavcÄ±":10073,"Ġsonbahar":10074,"Ã¶rneÄŁin":10075,"ĠyÃ¼kÃ¼mlÃ¼lÃ¼k":10076,"liÅŁkiler":10077,"ĠsÃ¶zlÃ¼k":10078,"Ġyuk":10079,"yat":10080,"ĠÙ":10081,"$$ÄŁince":10082,"$$lamada":10083,"$$usa":10084,"ĠolacaksÄ±nÄ±z":10085,"Ġreal":10086,"Ġshow":10087,"Ġbulunmayan":10088,"ĠkÄ±lavuz":10089,"Ġyalova":10090,"$$ilmiÅŁti":10091,"Ġmedi":10092,"seÃ§":10093,"Ġbilgiyi":10094,"Ġihtimali":10095,"$$sizin":10096,"ĠgruplarÄ±":10097,"ĠanlamÄ±yla":10098,"Ġhayvanlar":10099,"Ġdilerseniz":10100,"$$75":10101,"ĠanÄ±m":10102,"ĠtutarÄ±":10103,"Ġsars":10104,"Ġnice":10105,"Ġ2001":10106,"gaz":10107,"ĠyÄ±ldÃ¶n":10108,"Ġdikkati":10109,"Ġwar":10110,"ĠsatÄ±lan":10111,"Ġseti":10112,"Ġolas":10113,"ĠsÃ¶zcÃ¼sÃ¼":10114,"Ġperakende":10115,"Ġcihazlar":10116,"ĠgÃ¶t":10117,"ac":10118,"Ġnato":10119,"Ġnazar":10120,"$$Ã¢yet":10121,"$$zer":10122,"Ġbakmak":10123,"$$uydu":10124,"Ġgiresun":10125,"$$ografi":10126,"Ġolabiliyor":10127,"$$lÄ±ÄŁÄ±mÄ±z":10128,"ĠkalmasÄ±":10129,"Ġret":10130,"Ġtanr":10131,"ĠyaÅŁadÄ±":10132,"ĠgÃ¶lÃ¼":10133,"ci":10134,"$$iyete":10135,"ĠayrÄ±ldÄ±":10136,"ĠilaÃ§lar":10137,"ĠpadiÅŁah":10138,"Ġinanc":10139,"ĠÃ¶demeler":10140,"Ġanneler":10141,"Ġpasaport":10142,"Ġpembe":10143,"Ġkonunun":10144,"Ġpantolon":10145,"ĠyÃ¼ksekokulu":10146,"ĠÃ§ekerek":10147,"ĠdolandÄ±rÄ±cÄ±":10148,"Ġyahut":10149,"Ġverdikleri":10150,"ĠvÃ¼cudun":10151,"Ġikiye":10152,"Ġistedikleri":10153,"Ġhijyen":10154,"Ġfederasyon":10155,"ĠkÃ¢r":10156,"Ġgas":10157,"Ġkurtarma":10158,"Ġoynat":10159,"$$amÄ±zÄ±":10160,"Ġgeldim":10161,"Ġhayv":10162,"$$tre":10163,"$$eÄŁiyle":10164,"Ġyi":10165,"ĠadÄ±mlar":10166,"Ġdiyebiliriz":10167,"Ġkazak":10168,"Ġplanlanan":10169,"Ġhr":10170,"Ġhamile":10171,"ĠyazÄ±lmÄ±ÅŁ":10172,"$$sede":10173,"Ġkomitesi":10174,"baÅŁbakan":10175,"$$amÄ±za":10176,"Ġibar":10177,"Ġamas":10178,"ĠbaÅŁlatÄ±lan":10179,"$$Ã¼mde":10180,"hale":10181,"ĠpeÅŁinde":10182,"Ġbelirlenir":10183,"geÃ§en":10184,"$$rit":10185,"ĠanÄ±t":10186,"Ġaksiyon":10187,"Ġgetirilmesi":10188,"Ġhepimizin":10189,"$$asal":10190,"Ġrul":10191,"Ġnikah":10192,"Ġkonsept":10193,"ĠteÅŁkilatÄ±":10194,"ĠkÄ±smÄ±na":10195,"Ġorjinal":10196,"ĠolabileceÄŁi":10197,"ĠkeÅŁfed":10198,"spanyol":10199,"Ġmenfaat":10200,"$$atlÄ±":10201,"yle":10202,"ĠgÃ¼len":10203,"Ġmuharrem":10204,"ĠbaÅŁlandÄ±":10205,"$$dÄ±z":10206,"ĠiÅŁken":10207,"Ġkonforlu":10208,"Ġzorlan":10209,"Ġfiil":10210,"ĠbÃ¼rokr":10211,"Ġsitesinden":10212,"$$umun":10213,"ĠyÃ¶nÃ¼nden":10214,"Ġplus":10215,"Ġhuzurlu":10216,"ÂŁ":10217,"ĠustasÄ±":10218,"$$cunun":10219,"Ġdiyecek":10220,"peki":10221,"39":10222,"Ġiii":10223,"ĠyÃ¼zÃ¼ne":10224,"Ġwat":10225,"Ġparamet":10226,"Ġsorumlusu":10227,"$$Ã¼mÃ¼zÃ¼":10228,"ĠetmiÅŁti":10229,"tÃ¼":10230,"$$set":10231,"$$mazlÄ±k":10232,"ĠÃ§ikolata":10233,"ĠsÃ¶yleÅŁ":10234,"Ġoturan":10235,"Ġmuhtemel":10236,"ĠgÃ¶st":10237,"$$veni":10238,"fi":10239,"ĠgÃ¼ndÃ¼r":10240,"Ġedilemez":10241,"Ġduyulan":10242,"ĠkomÃ¼n":10243,"ĠkarÄ±ÅŁÄ±m":10244,"ot":10245,"Ġ04":10246,"kÃ¼Ã§Ã¼k":10247,"ĠedebiyatÄ±":10248,"ĠyÄ±":10249,"Ġmerh":10250,"Ġetmeleri":10251,"Ġyapabilecek":10252,"ĠgÃ¶rdÃ¼ÄŁÃ¼nÃ¼z":10253,"ĠartÄ±rmak":10254,"$$mosyon":10255,"$$laÅŁmÄ±ÅŁ":10256,"$$elikop":10257,"ĠamerikalÄ±":10258,"ĠendÃ¼stri":10259,"$$leÅŁen":10260,"ĠyÄ±kan":10261,"ĠayÅŁe":10262,"Ġmedy":10263,"han":10264,"Ġhaberdar":10265,"ĠbaÅŁkanlarÄ±":10266,"ĠsÄ±rasÄ±yla":10267,"Ġkucak":10268,"dÃ¶n":10269,"Ġartar":10270,"$$lant":10271,"Ġtra":10272,"ĠalÄ±ndÄ±ÄŁÄ±":10273,"Ġbitcoin":10274,"500":10275,"ĠaÃ§Ä±klamaya":10276,"ĠaÃ§Ä±ÄŁa":10277,"Ġseviyesine":10278,"ĠkaÃ§Ä±nÄ±lmaz":10279,"ĠfotoÄŁraflar":10280,"Ġsend":10281,"Ġkoordinasyon":10282,"ĠsÃ¶zcÃ¼":10283,"Ġtermin":10284,"Ġuluslar":10285,"uluslararasÄ±":10286,"$$tiÄŁim":10287,"ĠalÄ±ÅŁkanlÄ±k":10288,"$$larÄ±dÄ±r":10289,"ĠyazÄ±lÄ±mÄ±":10290,"ĠmÃ¼d":10291,"ĠÅŁan":10292,"$$ayi":10293,"Ġalmadan":10294,"Ġfren":10295,"nsanlarÄ±n":10296,"$$irt":10297,"ĠvermiÅŁtir":10298,"$$memektedir":10299,"ĠtÃ¼ketimi":10300,"ĠportfÃ¶y":10301,"gal":10302,"ĠkÄ±ymetli":10303,"Ġanlata":10304,"Ġios":10305,"$$emektedir":10306,"Ġefendimiz":10307,"ĠtamamÄ±nÄ±":10308,"Ã¼st":10309,"ĠÃ¼ste":10310,"Ġmodeller":10311,"ĠakÅŁamÄ±":10312,"ĠÃ¶dÃ¼lleri":10313,"$$suna":10314,"Ġyetmez":10315,"$$odu":10316,"Ġstrateji":10317,"ĠteÃ¢lÃ¢":10318,"ĠhastalÄ±ÄŁÄ±n":10319,"$$lerince":10320,"$$ational":10321,"$$abey":10322,"Ġ59":10323,"Ġliraya":10324,"Ġkentin":10325,"ĠdeÄŁiÅŁtirmek":10326,"Ġkanada":10327,"$$ox":10328,"ĠÃ¼zÃ¼l":10329,"bit":10330,"ĠbileÅŁen":10331,"$$Ã¼lerek":10332,"Ġafrin":10333,"Ġizliyor":10334,"Ġanlatmak":10335,"$$nn":10336,"ĠarÄ±yorum":10337,"Ġhain":10338,"Ġmasum":10339,"ĠyÃ¼zyÄ±lda":10340,"Ġmetab":10341,"Ġss":10342,"Ġettiklerini":10343,"ĠbaÅŁlamak":10344,"dÃ¼ÅŁ":10345,"$$malarda":10346,"ĠniÅŁan":10347,"ĠmÄ±dÄ±r":10348,"Ġkurgu":10349,"Ġreddet":10350,"Ġetap":10351,"$$ook":10352,"$$amÄ±zÄ±n":10353,"$$cilerin":10354,"ĠistediÄŁimiz":10355,"Ġkonul":10356,"$$tuÄŁrul":10357,"Ġambulans":10358,"ĠhaftasÄ±nda":10359,"ĠbaÄŁÄ±rsak":10360,"ĠgÃ¶rÃ¼ldÃ¼ÄŁÃ¼":10361,"tes":10362,"ĠbaktÄ±ÄŁÄ±mÄ±zda":10363,"Ġbuldum":10364,"ĠkadÄ±nlara":10365,"Ġkomb":10366,"Ġyoz":10367,"Ġetkisiyle":10368,"Ġword":10369,"ĠyapmÄ±ÅŁtÄ±r":10370,"Ġgrubun":10371,"ĠkatÄ±lacak":10372,"$$pi":10373,"stiklal":10374,"ĠÃ¶zdemir":10375,"Ġcidd":10376,"Ġspr":10377,"ĠhÄ±rsÄ±z":10378,"Ġatmak":10379,"ĠkararÄ±nÄ±":10380,"$$fone":10381,"ĠettiÄŁim":10382,"ham":10383,"ĠkaplÄ±":10384,"ĠkullanÄ±ÅŁlÄ±":10385,"Ġilgisi":10386,"$$gur":10387,"ĠzamanÄ±n":10388,"ĠpoÅŁet":10389,"Ġparf":10390,"ĠyaÅŁamÄ±n":10391,"Ġveda":10392,"Ã¢n":10393,"Ġup":10394,"$$ole":10395,"ĠgÃ¼venc":10396,"Ġkaba":10397,"ĠilÃ§esine":10398,"$$dÄ±ÄŁÄ±n":10399,"ĠÅŁirin":10400,"ĠsÃ¼tÃ¼":10401,"Ġtesisi":10402,"Ġmeg":10403,"ĠmÃ¼ÅŁterilerine":10404,"$$iliÄŁinden":10405,"$$yaka":10406,"ĠdeÄŁerini":10407,"$$aÄŁÄ±ndan":10408,"ĠgÃ¶khan":10409,"$$iÅŁik":10410,"Ġ180":10411,"ĠkarÅŁÄ±lamak":10412,"Ġakci":10413,"Ġolimpiyat":10414,"Ġbekir":10415,"$$larÃ½":10416,"$$Ã½nÃ½":10417,"$$idin":10418,"Ġveter":10419,"$$tÄ±kÃ§a":10420,"ĠayÄ±n":10421,"$$mÄ±ÅŁlar":10422,"Ġdevletleri":10423,"Ġhassasiyet":10424,"Ġdeyip":10425,"prof":10426,"ĠmodÃ¼l":10427,"Ġrakib":10428,"Ġumu":10429,"Ġpartinin":10430,"ali":10431,"Ġetek":10432,"Ġtoplumu":10433,"Ġmuayen":10434,"Ġkopar":10435,"Ġkapsayan":10436,"Ġhavada":10437,"Ġlezz":10438,"Ġarsa":10439,"$$osun":10440,"Ġdaim":10441,"$$Ä±tay":10442,"samsun":10443,"ĠanÄ±lan":10444,"Ġyirmi":10445,"$$Ã¼mÃ¼zÃ¼n":10446,"ĠsarayÄ±":10447,"$$irkin":10448,"Ġbelirtmek":10449,"ĠgerÃ§ekleÅŁecek":10450,"il":10451,"$$abilim":10452,"Ġilerlem":10453,"Ġkurut":10454,"ĠkÄ±zÄ±m":10455,"$$ustralya":10456,"ĠÃ§oÄŁunluÄŁu":10457,"$$culuk":10458,"ĠoÄŁul":10459,"$$graf":10460,"Ġyepyeni":10461,"$$avi":10462,"ĠfotoÄŁrafÄ±":10463,"ĠÃ§Ä±karÄ±lan":10464,"ĠsarÄ±m":10465,"Ġyahudi":10466,"ĠseÃ§men":10467,"Ġtakib":10468,"ĠtuÄŁ":10469,"ĠboÅŁalt":10470,"Ġhareketleri":10471,"ĠilaÃ§lama":10472,"Ġturgut":10473,"Ġolurlar":10474,"$$barek":10475,"Ġvey":10476,"Ġtema":10477,"ĠyÃ¶netmeliÄŁi":10478,"ĠyanÄ±l":10479,"Ġtarafa":10480,"ĠÃ§alÄ±ÅŁanlar":10481,"ĠgeÃ§mesi":10482,"ĠtÃ¼z":10483,"Ġbomba":10484,"Ġtabel":10485,"ĠtanÄ±nan":10486,"$$uan":10487,"ĠÃ¼cretleri":10488,"ĠsÄ±kÄ±ÅŁ":10489,"Ġredded":10490,"Ġhelikop":10491,"Ġmilleti":10492,"Ġste":10493,"Ġyapmadan":10494,"$$amin":10495,"$$akar":10496,"$$ikler":10497,"ĠkavramÄ±":10498,"ĠÃ§et":10499,"ĠÅŁÃ¼phel":10500,"Ġbilinmeyen":10501,"ĠtabanlÄ±":10502,"Ġdiyorlar":10503,"Ġdilerim":10504,"Ġekme":10505,"Ġsolunum":10506,"$$daa":10507,"ĠdÃ¼ÅŁÃ¼nÃ¼n":10508,"ĠaralÄ±":10509,"ĠziyaretÃ§i":10510,"dil":10511,"Ġnegatif":10512,"$$umda":10513,"ĠbaÅŁÄ±nÄ±":10514,"ĠgeÃ§erlidir":10515,"Ġkayak":10516,"ĠsayÄ±lan":10517,"Ġ67":10518,"$$akkak":10519,"ĠsaÄŁladÄ±":10520,"$$alarÄ±mÄ±z":10521,"Ġiktis":10522,"$$amda":10523,"Ġreng":10524,"Ã¶te":10525,"38":10526,"ĠeksikliÄŁi":10527,"Ġgiriyor":10528,"Ġmekanik":10529,"Ġdizayn":10530,"Ġwhatsapp":10531,"ĠÃ§evres":10532,"ĠgÃ¶receksiniz":10533,"ĠadlandÄ±rÄ±lan":10534,"ĠdilekÃ§":10535,"ĠÅŁeffaf":10536,"$$sym":10537,"$$sar":10538,"ĠyÄ±p":10539,"Ġidrar":10540,"ĠbaÃ¾":10541,"ĠÅŁebek":10542,"ĠkadÄ±nlarÄ±":10543,"Ġatom":10544,"ĠkurulmuÅŁtur":10545,"ĠÃ¶lÃ§ekli":10546,"Ġoynama":10547,"sat":10548,"ĠarkadaÅŁlarÄ±m":10549,"ĠyaptÄ±klarÄ±nÄ±":10550,"ĠbÃ¼yÃ¼yen":10551,"ĠgÃ¶zleri":10552,"ĠkandÄ±r":10553,"$$bÃ¼r":10554,"go":10555,"Ġderhal":10556,"Ġbron":10557,"Ã¼rÃ¼n":10558,"Ġhev":10559,"ĠyapÄ±lmasÄ±nÄ±":10560,"Ġiltih":10561,"$$Ã¶ren":10562,"ĠÃ¶ks":10563,"ĠÃ§Ä±":10564,"fot":10565,"$$yr":10566,"dÃ¼z":10567,"$$Ñĥ":10568,"Ġitiraf":10569,"$$lediler":10570,"ĠadaylarÄ±n":10571,"Ġharicinde":10572,"ĠardÄ±":10573,"elekt":10574,"ĠkalmadÄ±":10575,"Ġdiyalog":10576,"ĠkullanÄ±lÄ±yor":10577,"Ġsanatlar":10578,"ktis":10579,"Ġdinlem":10580,"ĠkonuÅŁmada":10581,"ĠhÃ¼z":10582,"ĠuyuÅŁ":10583,"$$liliÄŁini":10584,"ĠadasÄ±":10585,"ĠsadÄ±k":10586,"Ġdor":10587,"ĠsÃ¼recinin":10588,"is":10589,"Ġseviyor":10590,"Ġkitapta":10591,"ĠcÃ¼zdan":10592,"Ġelit":10593,"65":10594,"$$ekiz":10595,"$$tra":10596,"$$Ãµ":10597,"sonra":10598,"ĠhaberleÅŁme":10599,"Ġblu":10600,"Ġokudum":10601,"$$amonu":10602,"ĠÃ¶fk":10603,"eÄŁitim":10604,"ĠcihazlarÄ±":10605,"ĠmakinasÄ±":10606,"$$saspor":10607,"Ġkapasitesi":10608,"$$iver":10609,"Ġaradan":10610,"ĠÃ¼yeli":10611,"ĠaÃ§Ä±p":10612,"ĠdireniÅŁ":10613,"Ġ66":10614,"ĠselÃ§uklu":10615,"Ġifadesi":10616,"ĠprogramÄ±n":10617,"ĠtakÄ±":10618,"Ġsisteminde":10619,"ĠÃ§eviri":10620,"ĠturlarÄ±":10621,"Ġprograma":10622,"Ġpromosyon":10623,"ĠyazÄ±mÄ±zda":10624,"ĠÃ¼t":10625,"ĠaÃ§Ä±lÄ±r":10626,"saÄŁlÄ±k":10627,"ĠsÃ¶yleyerek":10628,"Ġoranla":10629,"ĠalacaÄŁÄ±":10630,"$$ost":10631,"ĠbÃ¼k":10632,"ĠdoÄŁuÅŁ":10633,"Ġkoyup":10634,"Ġtopluma":10635,"$$Ä±h":10636,"nas":10637,"ĠdÃ¼ÅŁÃ¼nÃ¼":10638,"ĠrÄ±za":10639,"ĠbaÅŁardÄ±":10640,"Ġsendrom":10641,"Ġberaberlik":10642,"$$tenj":10643,"slami":10644,"Ġasf":10645,"Ġzonguldak":10646,"Ġcari":10647,"Ġkavga":10648,"Ġsicil":10649,"Ġlamb":10650,"ĠtarÄ±msal":10651,"Ġsov":10652,"Ġeserler":10653,"$$Ã¼mÃ¼ze":10654,"ĠÃ§eliÅŁ":10655,"ĠsÃ¼recini":10656,"Ġmakale":10657,"Ġseviyesinde":10658,"Ġkalkan":10659,"Ġdestekli":10660,"ĠsÃ¶ylediÄŁi":10661,"ï¿½ï¿½ï¿½":10662,"Ġkesme":10663,"Ġbatman":10664,"$$sÄ±m":10665,"Ã§ev":10666,"Ġterap":10667,"Ġodaklan":10668,"Ġfos":10669,"Ġtemen":10670,"Ġsevinirim":10671,"ĠkuruÅŁ":10672,"ĠgeleceÄŁini":10673,"ĠyazÄ±yÄ±":10674,"Ġedelim":10675,"ĠyapÄ±lacaÄŁÄ±":10676,"Ġgelmek":10677,"ĠgittiÄŁi":10678,"Ġrenkleri":10679,"ĠkuÅŁak":10680,"Ġintihar":10681,"Ġerit":10682,"ĠanlÄ±k":10683,"Ġunutulmaz":10684,"Ġtaray":10685,"ĠÃ§Ä±kmaktadÄ±r":10686,"Ġekledi":10687,"ĠolaylarÄ±n":10688,"htiy":10689,"ĠyÃ¼rek":10690,"Ġnor":10691,"sonu":10692,"$$atlarÄ±":10693,"$$asÄ±n":10694,"ĠÃ§er":10695,"ĠÄ±ÅŁÄ±n":10696,"Ã§eri":10697,"$$tÃ¼ÄŁ":10698,"$$26":10699,"Ġyemekleri":10700,"$$diÄŁinde":10701,"$$alisyon":10702,"Ġsms":10703,"sviÃ§re":10704,"Ġverilerin":10705,"Ġetkileyici":10706,"ĠburÃ§":10707,"ĠmÃ¼ÅŁterilerimize":10708,"sor":10709,"Ġzarf":10710,"Ġbulgaristan":10711,"ĠyaÅŁamaya":10712,"Ġafet":10713,"ĠkÄ±smen":10714,"Ġbasamak":10715,"Ġiyilik":10716,"ĠÃ¶dev":10717,"$$leks":10718,"Ġdayanan":10719,"Ġ68":10720,"$$rÃ¼":10721,"lah":10722,"Ġseslendir":10723,"$$ung":10724,"ĠyayÄ±nlan":10725,"ĠsÃ¶ndÃ¼r":10726,"Ġseramik":10727,"Ġgizlilik":10728,"ĠbaÅŁlattÄ±":10729,"ĠkararlarÄ±":10730,"ĠaltÄ±ndan":10731,"Ġkronik":10732,"ĠmÃ¼ze":10733,"ĠÃ§iling":10734,"ĠvuruÅŁ":10735,"ĠsÄ±kÄ±ÅŁtÄ±r":10736,"ĠfragmanÄ±":10737,"ĠrolÃ¼":10738,"Ġbelirlemek":10739,"fat":10740,"Ġyelpaz":10741,"Ġbadem":10742,"ĠyalÃ§Ä±n":10743,"ĠtadÄ±":10744,"Ġaramak":10745,"$$ularak":10746,"Ġatarak":10747,"Ġverirken":10748,"Ġistemiyorum":10749,"ĠsorumluluÄŁu":10750,"ĠgÃ¶kyÃ¼z":10751,"ĠtercÃ¼me":10752,"ĠmÃ¼slÃ¼manlar":10753,"Ġgaler":10754,"Ġortaokul":10755,"ĠfaydalarÄ±":10756,"Ġbilinmektedir":10757,"Ġmul":10758,"ĠkÄ±yaf":10759,"Ġhissi":10760,"ĠfazlasÄ±nÄ±":10761,"ĠaÃ§Ä±klamasÄ±nda":10762,"Ġhelal":10763,"ĠtopraÄŁa":10764,"devamÄ±":10765,"Ġfiyata":10766,"mÃ¼":10767,"ĠÃ§ob":10768,"ĠdÃ¼zeyinde":10769,"ĠÃ§ayÄ±":10770,"ĠÅŁimdilik":10771,"$$navut":10772,"$$lerinizde":10773,"Ġanabilim":10774,"Ġyemekler":10775,"Ġinsanlarla":10776,"Ġvideoyu":10777,"Ġuzmanlar":10778,"ĠarayÃ¼z":10779,"$$elin":10780,"Ġfaruk":10781,"ĠataÅŁ":10782,"Ġminimum":10783,"Ġcik":10784,"Ġalanya":10785,"bursa":10786,"Ġsuriyeli":10787,"Ġcephe":10788,"ĠkaldÄ±m":10789,"ĠtaÅŁÄ±r":10790,"$$Ä±sÄ±n":10791,"Ġpersonelin":10792,"$$yoruz":10793,"ĠokullarÄ±":10794,"ĠtÄ±kla":10795,"Ġtapu":10796,"Ġkare":10797,"$$asay":10798,"ĠgÃ¶nderildi":10799,"ĠkÃ¶tÃ¼lÃ¼k":10800,"ĠÃ§alÄ±ÅŁmanÄ±n":10801,"Ġvaran":10802,"$$ÂĶ":10803,"Ġpot":10804,"ĠtoplantÄ±ya":10805,"Ġuygulanacak":10806,"Ġkontenj":10807,"$$tÄ±p":10808,"Ġbenims":10809,"Ġtansiyon":10810,"ĠkazanÄ±r":10811,"$$eron":10812,"ĠyÃ¶ntemler":10813,"Ġmesafe":10814,"Ġinsani":10815,"Ġmakineleri":10816,"Ġbirincisi":10817,"ĠkaÄŁÄ±dÄ±":10818,"Ġaileler":10819,"Ġkoydu":10820,"$$yacaÄŁÄ±":10821,"Ġgruplar":10822,"diy":10823,"ĠgÃ¶rÃ¼ntÃ¼lÃ¼":10824,"ĠÃ§alÄ±ÅŁÄ±yorum":10825,"ĠtaÅŁÄ±y":10826,"yan":10827,"ĠkavuÅŁtur":10828,"ĠsaÄŁlanÄ±r":10829,"Ġ1999":10830,"Ġgro":10831,"âĢ¦âĢĿ":10832,"Ġatar":10833,"dari":10834,"Ġdez":10835,"ĠkalkÄ±ÅŁ":10836,"Ġltd":10837,"ĠdÄ±ÅŁarÄ±da":10838,"ĠkÄ±zÄ±lay":10839,"Ġtol":10840,"ĠeÄŁitimin":10841,"Ġsevimli":10842,"Ġanimasyon":10843,"$$Ã§Ä±nÄ±n":10844,"ĠjÃ¼r":10845,"Ġyatay":10846,"ĠdÃ¶nÃ¼p":10847,"ĠtÃ¼ken":10848,"cev":10849,"erkek":10850,"ĠkeÅŁke":10851,"$$Ã§ekmece":10852,"fakat":10853,"$$ubuk":10854,"Ã§inde":10855,"lÄ±k":10856,"Ġekonomisi":10857,"ÅŁeh":10858,"ĠsÃ¶zde":10859,"Ġkilometr":10860,"Ġbireyler":10861,"$$kurmay":10862,"$$itli":10863,"Ġvilla":10864,"Ġpolitikalar":10865,"Ġsahibinin":10866,"ĠyaÅŁadÄ±klarÄ±":10867,"$$34":10868,"Ġokut":10869,"ĠÃ§ocukluk":10870,"sah":10871,"ĠyaÅŁta":10872,"Ġborcu":10873,"arac":10874,"ĠsÃ¼recek":10875,"Ġileride":10876,"ĠseÃ§kin":10877,"$$idir":10878,"ĠsoÄŁutma":10879,"Ġerol":10880,"ĠsoÄŁan":10881,"skender":10882,"$$lana":10883,"ĠÅŁehrinde":10884,"37":10885,"$$oskova":10886,"Ġkavur":10887,"dÃ¼nyanÄ±n":10888,"Â¼":10889,"ĠbirleÅŁmiÅŁ":10890,"ĠkahramanmaraÅŁ":10891,"Ġ800":10892,"Ġseh":10893,"$$takÄ±m":10894,"ĠkaraciÄŁer":10895,"$$sch":10896,"Ġromantik":10897,"ĠsÄ±nÄ±rÄ±":10898,"Ġyapama":10899,"ĠÃ¶ÄŁrenebilirsiniz":10900,"Ġmiz":10901,"ĠbranÅŁ":10902,"Ġkozmetik":10903,"ĠkÃ¶yÃ¼nde":10904,"$$val":10905,"ĠaÄŁacÄ±":10906,"ĠbulunmamaktadÄ±r":10907,"Ġkolon":10908,"Ġprogramda":10909,"ĠbaÄŁlamda":10910,"ĠyazÄ±da":10911,"$$tp":10912,"ĠtamamlandÄ±":10913,"$$iÃ§in":10914,"Ġuygundur":10915,"dÄ±ÅŁ":10916,"ĠyaÅŁÄ±na":10917,"ĠsayÄ±sal":10918,"Ġmobily":10919,"Ġgeleni":10920,"ĠgÃ¶stererek":10921,"Ġkatma":10922,"ĠoluÅŁturuyor":10923,"Ġmeselesi":10924,"Ġkendinden":10925,"ĠinÃ§":10926,"$$lidir":10927,"Ã¼l":10928,"ĠkeÅŁif":10929,"$$ahattin":10930,"Ġdede":10931,"$$vil":10932,"Ġlg":10933,"ĠbelÃ§":10934,"Ġdestan":10935,"$$uhaf":10936,"Ġyorumu":10937,"ĠÃ§ekt":10938,"$$iliÄŁin":10939,"Ġbireylerin":10940,"kas":10941,"Ġvermez":10942,"ĠgeÃ§in":10943,"ĠdeÄŁerlendirmeler":10944,"Ġdiyoruz":10945,"$$Ä±lÄ±ÅŁÄ±":10946,"ĠertuÄŁrul":10947,"Ġyama":10948,"ĠaydÄ±r":10949,"Ġavusturya":10950,"Ġyolla":10951,"kiÅŁ":10952,"Ġharik":10953,"Ġtayin":10954,"Ġavrup":10955,"Ġsuyunu":10956,"ĠhakkÄ±na":10957,"Ġsih":10958,"Ġhamilelik":10959,"$$28":10960,"ĠbazÄ±nda":10961,"ĠÃ¶zelliÄŁini":10962,"film":10963,"ĠhazÄ±rlanÄ±yor":10964,"ĠÃ¼lkeden":10965,"ĠmÃ¼lkiyet":10966,"ÅŁÃ§i":10967,"$$dine":10968,"ĠkaldÄ±rÄ±ldÄ±":10969,"ĠaÃ§Ä±klanan":10970,"ĠbinanÄ±n":10971,"$$yumu":10972,"ĠalkÄ±ÅŁ":10973,"ĠsorunlarÄ±nÄ±":10974,"gÃ¶":10975,"ĠÅŁehircilik":10976,"ĠyÃ¼kle":10977,"ĠolanlarÄ±":10978,"ĠyazmÄ±ÅŁ":10979,"ĠfarkÄ±ndalÄ±k":10980,"Ġyaratmak":10981,"ĠplakalÄ±":10982,"ĠÅŁekillendir":10983,"ĠgÃ¶rÃ¼lebilir":10984,"se":10985,"$$tiz":10986,"sit":10987,"ĠÃ¶tesinde":10988,"ĠÃ§Ä±karma":10989,"Ġtoplumda":10990,"Ġveriliyor":10991,"Ġprensip":10992,"ĠyazÄ±larÄ±":10993,"Ġmemuru":10994,"$$mad":10995,"$$Ä±nacak":10996,"Ġizledi":10997,"Ġabone":10998,"ĠdolarÄ±":10999,"$$osh":11000,"Ã¼ncÃ¼":11001,"ĠdÃ¼zenledi":11002,"$$........":11003,"Ġahmed":11004,"Ġborsa":11005,"Ġzihinsel":11006,"$$tÃ¼m":11007,"Ġtedavisinde":11008,"ĠyÃ¼zÃ¼nÃ¼":11009,"ĠyÄ±ldÄ±zÄ±":11010,"ĠyÃ¼rÃ¼":11011,"Ġekrana":11012,"ĠhazÄ±rlamak":11013,"mev":11014,"ĠiÅŁley":11015,"$$yacaÄŁÄ±nÄ±z":11016,"Ġartarak":11017,"ĠkalÄ±ntÄ±":11018,"ĠadaylarÄ±":11019,"$$Ã¼el":11020,"Ġbakarak":11021,"ĠgÃ¼zergah":11022,"Ġhalini":11023,"Ġberlin":11024,"ĠuzmanlÄ±k":11025,"ĠkullanÄ±cÄ±larÄ±":11026,"2008":11027,"ĠnoktasÄ±na":11028,"Ġserdar":11029,"$$Ã¼ltÃ¼r":11030,"Ġsorusuna":11031,"$$dÃ¼ÄŁÃ¼nde":11032,"Ġferah":11033,"Ġblack":11034,"Ġatma":11035,"$$ilerimiz":11036,"Ġcap":11037,"cumhuriyet":11038,"Ġkayd":11039,"ĠnÃ¼fusu":11040,"ĠsanatÄ±":11041,"ĠgerÃ§ekleÅŁtiren":11042,"Ġgereksinim":11043,"Ġrock":11044,"$$ademi":11045,"Ġ190":11046,"ĠakciÄŁer":11047,"ĠalÄ±nmÄ±ÅŁtÄ±r":11048,"$$fil":11049,"$$oker":11050,"Ġseans":11051,"Ġkarara":11052,"ĠÃ§Ã¶zÃ¼mleri":11053,"ĠÃ§ekirdek":11054,"ĠÅŁak":11055,"ĠyÃ¼kÃ¼mlÃ¼":11056,"Ġfatma":11057,"$$uzel":11058,"Ã¶ÄŁretim":11059,"$$Ä±lmasÄ±nÄ±n":11060,"Ġkatar":11061,"Ġucu":11062,"$$ilar":11063,"ĠfiÅŁ":11064,"Ġflor":11065,"Ġmiting":11066,"ĠaÅŁkÄ±":11067,"Ġadem":11068,"ĠdÃ¶kÃ¼l":11069,"$$onomi":11070,"Ġruhsal":11071,"ĠÃ¶lÃ¼mÃ¼":11072,"Ġtelefondan":11073,"ĠateÅŁli":11074,"Ġmalzemesi":11075,"smet":11076,"yok":11077,"$$dÃ¼n":11078,"Ġkoalisyon":11079,"Ġgetirecek":11080,"Ġmuhakkak":11081,".-":11082,"$$dirme":11083,"Ġdefalarca":11084,"$$tiÅŁ":11085,"$$cÄ±larÄ±":11086,"ĠharÃ§":11087,"ĠtekirdaÄŁ":11088,"\".":11089,"ĠdÃ¼ÅŁÃ¼yor":11090,"ĠgerÃ§ekleÅŁtirmek":11091,"Ġetmesini":11092,"44":11093,"ĠyaÅŁadÄ±ÄŁÄ±mÄ±z":11094,"Ġbutonuna":11095,"$$cim":11096,"ĠÃ¼skÃ¼dar":11097,"Ġdeh":11098,"Ġvaj":11099,"Ġdevrimci":11100,"ĠanlaÅŁmasÄ±":11101,"ĠsaÄŁlanan":11102,"sp":11103,"ĠpazarÄ±":11104,"$$etle":11105,"ĠgÃ¶rÃ¼ntÃ¼ler":11106,"ĠbaskÄ±n":11107,"Ġboyunda":11108,"$$luÄŁunun":11109,"99":11110,"Ġsevgiler":11111,"ĠbiÃ§imi":11112,"$$edektif":11113,"Ġatlet":11114,"ĠyÃ¼rÃ¼rlÃ¼k":11115,"Ġnitelendir":11116,"Ġtarihin":11117,"ĠsonuÃ§larÄ±nÄ±":11118,"ĠÃ¼nal":11119,"Ġberk":11120,"zmit":11121,"Ġetmeyin":11122,"ĠÃ§ocuklarda":11123,"ĠbÃ¶lgeler":11124,"ĠtopluluÄŁu":11125,"kendi":11126,"ĠÃ¼mmet":11127,"ĠkÄ±lÄ±n":11128,"$$Ã®m":11129,"so":11130,"$$ahisar":11131,"Ġyapabil":11132,"Ġkurtulmak":11133,"Ġrit":11134,"$$landÄ±ÄŁÄ±nÄ±":11135,"ĠÃ§Ä±kmÄ±ÅŁtÄ±r":11136,"ĠaÄŁac":11137,"ĠgelmiÅŁti":11138,"Ġdublaj":11139,"$$liydi":11140,"Ġastr":11141,"Ġetmiyor":11142,"Ġfaaliyetlerini":11143,"Ġfelsefe":11144,"Ġediyordu":11145,"ĠaskÄ±":11146,"48":11147,"ĠparasÄ±":11148,"Ġkazanma":11149,"ĠbaÅŁlamadan":11150,"$$77":11151,"ĠbÃ¼yÃ¼klÃ¼k":11152,"ĠkiÅŁileri":11153,"ĠÃ§alÄ±ÅŁacak":11154,"ĠbirtakÄ±m":11155,"Ġnci":11156,"$$adÃ¼f":11157,"Ġsuda":11158,"Ġbitim":11159,"Ġtutk":11160,"ĠhastalÄ±klar":11161,"ĠkorkunÃ§":11162,"Ġboyn":11163,"Ġtahta":11164,"gÃ¼ven":11165,"Ġuefa":11166,"Ġterey":11167,"2009":11168,"$$leyebilirsiniz":11169,"ĠyaptÄ±ktan":11170,"ĠseÃ§me":11171,"Ġkot":11172,"ĠpaylaÅŁtÄ±":11173,"ĠÃ§ocuÄŁa":11174,"Ġdileriz":11175,"Ġkentinde":11176,"Ġ69":11177,"ĠfigÃ¼r":11178,"ddi":11179,"$$delen":11180,"Ġilke":11181,"Ġdul":11182,"$$ill":11183,"ĠaktÃ¶r":11184,"ĠÃ¼rÃ¼nlerinin":11185,"Ġmermer":11186,"kaz":11187,"$$bilecek":11188,"Ġkarakteri":11189,"$$ses":11190,"ĠsÄ±rf":11191,"Ġpatron":11192,"Ġoksijen":11193,"$$Ã§elik":11194,"Ġbilinir":11195,"Ġmesai":11196,"Ġkabar":11197,"$$imizdeki":11198,"sayÄ±n":11199,"$$meliyiz":11200,"ĠolduÄŁumu":11201,"$$edikleri":11202,"$$lerimizle":11203,"larÄ±n":11204,"ĠyaÅŁandÄ±ÄŁÄ±":11205,"ĠÄ±ÅŁ":11206,"ĠÃ¢lem":11207,"Ġkaydedildi":11208,"$$istir":11209,"geÃ§tiÄŁimiz":11210,"$$antin":11211,"Ġintern":11212,"ĠÃ§ektir":11213,"Ġkalmaz":11214,"Ġkonumu":11215,"ĠÃ§irkin":11216,"$$Ã¼sÃ¼ne":11217,"Ġharita":11218,"Ġtamamlayan":11219,"ĠÃ¼lkemize":11220,"Ġresimler":11221,"ĠbiÅŁ":11222,"Ġoktay":11223,"ĠiÅŁg":11224,"ĠÃ§Ä±kmaya":11225,"ĠdoÄŁrul":11226,"ĠiÅŁlemini":11227,"ĠkonuÅŁmasÄ±nda":11228,"Ġetkisiz":11229,"Ġsl":11230,"konu":11231,"ĠmÃ¼barek":11232,"Ġehliyet":11233,"$$âĢ¦âĢ¦":11234,"ĠÃ§Ä±plak":11235,"ĠoluÅŁturma":11236,"Ġailesine":11237,"$$delik":11238,"ĠeÄŁitmen":11239,"Ġduman":11240,"ĠÃ§alÄ±ÅŁmaktadÄ±r":11241,"ĠyaÅŁÄ±":11242,"ĠstÃ¼":11243,"Ġ]":11244,"ĠâĨĴ":11245,"ĠsÃ¼rdÃ¼rdÃ¼":11246,"ĠeyÃ¼p":11247,"Ġdedektif":11248,"Ġdenli":11249,"ĠaÅŁam":11250,"$$ea":11251,"ĠkimliÄŁi":11252,"ĠgÃ¶nl":11253,"Ġverilerine":11254,"Ġaralar":11255,"Ġrefah":11256,"ĠkÃ¶klÃ¼":11257,"$$kz":11258,"$$Ã¼lecek":11259,"Ġoral":11260,"ĠbÃ¶lÃ¼mÃ¼ne":11261,"$$ceÄŁini":11262,"gir":11263,"$$lav":11264,"ĠyakalandÄ±":11265,"Ġokyan":11266,"Ġokulun":11267,"ĠyasasÄ±":11268,"Ġhiper":11269,"Ġbalon":11270,"ĠmÃ¼ddet":11271,"Ġvakt":11272,"Ġ1980":11273,"$$dk":11274,"ĠiddialÄ±":11275,"ĠyaptÄ±rmak":11276,"Ġwe":11277,"ĠdÃ¼ÅŁÃ¼nÃ¼yoruz":11278,"$$...]":11279,"ĠdÃ¼zce":11280,"Ġlaik":11281,"ĠmÃ¼ÅŁav":11282,"Ġkupon":11283,"ĠbaÄŁlantÄ±lÄ±":11284,"ĠdÃ¼ÅŁmÃ¼ÅŁ":11285,"zle":11286,"ĠeditÃ¶r":11287,"ĠbaÅŁlayÄ±p":11288,"Ġkuruldu":11289,"$$ras":11290,"Ġcity":11291,"ĠðŁĺ":11292,"ĠbaÅŁkanlÄ±ÄŁÄ±nda":11293,"Ġkre":11294,"$$afak":11295,"ĠcoÄŁrafi":11296,"Ġetnik":11297,"Ġsizlerde":11298,"Ġradikal":11299,"ĠkaldÄ±rÄ±lmasÄ±":11300,"Ġbizans":11301,"Ġafgan":11302,"Ġmuhabir":11303,"ĠzeytinyaÄŁÄ±":11304,"Ġturistik":11305,"ĠkararÄ±n":11306,"ĠbÃ¶lÃ¼mleri":11307,"$$xt":11308,"Ġoldular":11309,"Ġnefis":11310,"ĠortaklÄ±k":11311,"Ġbuda":11312,"ĠiliÅŁkili":11313,"Ġkeyfi":11314,"$$ÑĤ":11315,"$$ĀĀ":11316,"$$46":11317,"Ġedebilecek":11318,"$$laÅŁan":11319,"ĠiÅŁlerini":11320,"Ġbelirsiz":11321,"ĠfÄ±rÃ§":11322,"Ġhakikat":11323,"ĠolmaksÄ±zÄ±n":11324,"ĠpÄ±nar":11325,"ĠaldÄ±r":11326,"ĠmeÅŁgul":11327,"yal":11328,"hav":11329,"ĠbÃ¶lgesindeki":11330,"ĠvideolarÄ±":11331,"nÃ¼":11332,"ĠÃ§Ã¶zÃ¼l":11333,"ĠgÃ¶sterg":11334,"ĠÅŁi":11335,"$$lenmiÅŁtir":11336,"ĠyapÄ±nÄ±n":11337,"Ġsitesine":11338,"Ġyurti":11339,"$$Ã°i":11340,"Ġbirebir":11341,"ĠÃ§Ä±karan":11342,"oto":11343,"$$luÄŁuna":11344,"ĠbakÄ±mdan":11345,"Ġkenara":11346,"Ġtil":11347,"$$izin":11348,"Ġvarken":11349,"$$own":11350,"$$iyenin":11351,"ĠkÃ¶l":11352,"Ġarayarak":11353,"ĠÃ§alÄ±ÅŁmada":11354,"$$ayarak":11355,"ĠarkasÄ±ndan":11356,"Ġtamiri":11357,"Ġtahliye":11358,"Ġml":11359,"Ġedemez":11360,"Ġfiyatlarla":11361,"Ġdib":11362,"Ġyoksun":11363,"$$ruklu":11364,"Ġfant":11365,"Ġtuhaf":11366,"$$ollarÄ±":11367,"Ġmg":11368,"Ġhamam":11369,"Ġteslimat":11370,"Ġetmeyen":11371,"Ġkaram":11372,"Ġgelmiyor":11373,"$$olat":11374,"Ġyut":11375,"Ġ1990":11376,"ĠsÄ±ral":11377,"ĠiÃ§me":11378,"Ġokullar":11379,"Ġizn":11380,"Ġgalip":11381,"Ġalay":11382,"Ġsenden":11383,"ĠyoÄŁur":11384,"ĠortaÄŁÄ±":11385,"ĠbÄ±rakmak":11386,"41":11387,"Ġygs":11388,"$$ilmeli":11389,"ĠÃ¶zkan":11390,"$$lenmektedir":11391,"Ġaksaray":11392,"ĠniteliÄŁinde":11393,"$$beti":11394,"$$vey":11395,"Ġolduktan":11396,"Ġley":11397,"ĠsavaÅŁÄ±n":11398,"$$work":11399,"ĠkanlÄ±":11400,"ĠoyuncularÄ±":11401,"ĠbildiÄŁi":11402,"$$lamÄ±yor":11403,"Ġerzincan":11404,"ĠyÃ¶nelt":11405,"$$fke":11406,"Ġsolu":11407,"Ġfal":11408,"Ġverit":11409,"$$Ä±rda":11410,"$$Ã¼sÃ¼nÃ¼n":11411,"Ġasfalt":11412,"Ġfinansman":11413,"ĠkÃ¼tahya":11414,"ĠedeceÄŁini":11415,"ĠdÃ¼zenlemeler":11416,"ĠgÃ¶steri":11417,"ĠbakÄ±yor":11418,"Ġbelirlem":11419,"Ġtrib":11420,"ĠyapÄ±lmalÄ±dÄ±r":11421,"Ġ99":11422,"ka":11423,"ĠfarkÄ±na":11424,"din":11425,"Ġayni":11426,"ĠsÄ±rala":11427,"ĠbaÅŁlÄ±klarÄ±":11428,"Ġhp":11429,"ĠÃ¢yet":11430,"Ġaman":11431,"$$mamalÄ±dÄ±r":11432,"Ġmotorlu":11433,"$$tÄ±nÄ±z":11434,"htt":11435,"ĠgÃ¶rÃ¼nÃ¼ÅŁ":11436,"Ġmesafede":11437,"Ġkafkas":11438,"ĠkÃ¶prÃ¼sÃ¼":11439,"ĠÃ§orum":11440,"ĠgÃ¶rmeye":11441,"$$laÅŁÄ±k":11442,"ĠarayÄ±p":11443,"ĠaÄŁa":11444,"ĠkoltuÄŁ":11445,"Ġenj":11446,"Ġgre":11447,"ĠyapalÄ±m":11448,"ĠdiÄŁerleri":11449,"Ġproblemleri":11450,"$$omi":11451,"ĠgÃ¶lg":11452,"ĠÃ§eker":11453,"Ġifadesini":11454,"Ġaldat":11455,"âĢ²":11456,"Ġsgk":11457,"ĠsonlandÄ±r":11458,"Ġmesele":11459,"Ġlevent":11460,"ĠendiÅŁe":11461,"Ġaram":11462,"Ġyed":11463,"Ġhavaalan":11464,"$$35":11465,"$$general":11466,"$$ÄŁinizde":11467,"Ġhavaliman":11468,"Ġpencere":11469,"lhan":11470,"ĠbÃ¶lÃ¼mÃ¼nden":11471,"$$laz":11472,"Ġmoral":11473,"$$bolu":11474,"$$ence":11475,"ĠmutluluÄŁ":11476,"Ġrehabil":11477,"devam":11478,"Ġchar":11479,"$$das":11480,"$$don":11481,"ĠmÃ¼slÃ¼manlarÄ±n":11482,"ĠrÃ¼zg":11483,"Ġtaksim":11484,"ĠyÃ¼zyÄ±lÄ±n":11485,"Ġbelirtileri":11486,"ĠulaÅŁtÄ±rma":11487,"âĢĻ,":11488,"ĠtakÄ±mlarÄ±":11489,"$$ettÃ¼r":11490,"ĠgÃ¶rÃ¼p":11491,"ĠihtiyacÄ±nÄ±":11492,"Ġkitle":11493,"$$ilmesinde":11494,"Ġcir":11495,"ĠayaÄŁa":11496,"Ġmilletvekilleri":11497,"ĠkurumlarÄ±n":11498,"ĠÃ§orba":11499,"ĠsaÄŁlayarak":11500,"Ġnic":11501,"Ġdemokrat":11502,"ĠdurumlarÄ±":11503,"Ġzeynep":11504,"ĠkÄ±sacasÄ±":11505,"Ġdenizi":11506,"ĠsÃ¼recin":11507,"bakan":11508,"$$aganda":11509,"Ġnasip":11510,"Ġmakar":11511,"Ġmaks":11512,"ĠÃ¼ncÃ¼":11513,"Ġiso":11514,"Ġkarat":11515,"ĠgÃ¶vde":11516,"ĠyaÅŁÄ±yoruz":11517,"Ġparma":11518,"Ġneb":11519,"Ġmekk":11520,"ĠÃ¶zcan":11521,"$$itan":11522,"Ġhek":11523,"Ġnat":11524,"Ġharman":11525,"ĠÃ§oÄŁal":11526,"Ġgerektirir":11527,"ĠmesajlarÄ±":11528,"ĠyerleÅŁtirme":11529,"Ġakademisyen":11530,"ĠvasÄ±tasÄ±yla":11531,"Ġpv":11532,"$$mÄ±ÅŁlardÄ±r":11533,"ĠkarÅŁÄ±nÄ±za":11534,"Ġderler":11535,"ĠpeÅŁin":11536,"ĠbÃ¶lgesine":11537,"Ġduyul":11538,"Ġvoley":11539,"ĠyazarÄ±n":11540,"Ġbuluyor":11541,"ĠkÄ±smÄ±nÄ±n":11542,"Ġsaatler":11543,"ĠÃ§ilingir":11544,"ĠsaÄŁlama":11545,"ĠgÃ¶zlÃ¼k":11546,"rusya":11547,"met":11548,"Ġangel":11549,"ĠtesadÃ¼f":11550,"ĠayÄ±na":11551,"ĠmuhtaÃ§":11552,"ĠdÃ¼ÅŁÃ¼nerek":11553,"Ġtelaf":11554,"$$hy":11555,"ĠhavacÄ±lÄ±k":11556,"Ġsorusu":11557,"ĠÄ±ÅŁÄ±ÄŁÄ±":11558,"Ġkonsan":11559,"ĠÃ§ocuklarÄ±nÄ±n":11560,"Ġprosed":11561,"ĠverildiÄŁi":11562,"$$adar":11563,"Ġster":11564,"nc":11565,"Ġprojede":11566,"ĠmÃ¼ft":11567,"Ġhelikopter":11568,"$$ÄŁimizde":11569,"ĠkÃ¼rdistan":11570,"ĠmalÄ±":11571,"Ġdursun":11572,"Ġkatman":11573,"Ġsitesinin":11574,"Ġcr":11575,"Ġistediklerini":11576,"Ġkalor":11577,"Ġkutusu":11578,"ĠnazÄ±m":11579,"Ġveteriner":11580,"ĠdÃ¶nÃ¼yor":11581,"$$koz":11582,"$$»¿":11583,"cm":11584,"Ã¼niversit":11585,"oyun":11586,"Ġisabet":11587,"Ġorganizasyonu":11588,"Ġ72":11589,"iÃ§":11590,"Ġevler":11591,"ĠÃ§evrimi":11592,"ĠgÃ¶rÃ¼ntÃ¼leri":11593,"Ġnedenleri":11594,"ĠkullanÄ±yorum":11595,"$$lish":11596,"Ġsokakta":11597,"ĠseÃ§imlerinde":11598,"ĠyurttaÅŁ":11599,"co":11600,"$$alÄ±lar":11601,"Ġgri":11602,"$$ney":11603,"Ġyenileme":11604,"ĠÃ§Ä±kÄ±ÅŁÄ±":11605,"Ġolu":11606,"ĠyalÄ±tÄ±m":11607,"ĠkullanÄ±mÄ±na":11608,"ĠhÄ±ristiyan":11609,"Ġplanla":11610,"ĠhÃ¼kÃ¼mlerine":11611,"ĠÃ¼cretli":11612,"$$yetik":11613,"ĠdÃ¼zenleyen":11614,"Ġtakdim":11615,"Ġacel":11616,"Ġdurumdan":11617,"ĠiÅŁine":11618,"Ġhizmetini":11619,"Ġduyan":11620,"$$bc":11621,"ĠcevabÄ±nÄ±":11622,"Ġdinin":11623,"yol":11624,"Ġsizce":11625,"ĠÃ§arÅŁ":11626,"ĠgÃ¶nderdi":11627,"ĠÃ¶mrÃ¼":11628,"Ġimparator":11629,"Ġfol":11630,"$$ifi":11631,"Ġsoylu":11632,"sonuÃ§":11633,"inin":11634,"$$rada":11635,"ĠÃ§alÄ±ÅŁmalarÄ±nda":11636,"Ġtersine":11637,"ĠseÃ§imlerde":11638,"Ġavustralya":11639,"Ġiyisi":11640,"Ġkategori":11641,"Ġkabin":11642,"Ġkumanda":11643,"$$aspor":11644,"ĠgÃ¶zle":11645,"ĠÅŁarkÄ±cÄ±":11646,"ger":11647,"Ġ700":11648,"ĠbozukluÄŁu":11649,"Ġdireksiyon":11650,"ĠseÃ§ildi":11651,"Ġkorum":11652,"ĠhavaalanÄ±":11653,"ĠaraÅŁtÄ±rmalarÄ±":11654,"$$ira":11655,"Ġtorb":11656,"$$ness":11657,"Ġrehberlik":11658,"ĠdÃ¶kÃ¼m":11659,"$$Ã§o":11660,"ĠkÃ¶kenli":11661,"$$oliz":11662,"Ġdiyabet":11663,"Ġcesur":11664,"Ġseviyeye":11665,"Ġpolat":11666,"ĠhatalÄ±":11667,"zaman":11668,"ĠyÄ±lbaÅŁÄ±":11669,"Ġdiledi":11670,"Ġyrd":11671,"$$etmen":11672,"ĠgÃ¶rÃ¼yorum":11673,"Ġty":11674,"Ġzarif":11675,"Ġkarayolu":11676,"sak":11677,"ĠprogramÄ±nÄ±n":11678,"Ġstart":11679,"Ġdizinin":11680,"ĠtapÄ±n":11681,"Ġatama":11682,"$$pazarÄ±":11683,"ĠyÃ¶netiminin":11684,"$$mazlar":11685,"Ġportakal":11686,"ĠuÅŁak":11687,"Ġsistemler":11688,"min":11689,"ĠbarÄ±ndÄ±ran":11690,"$$dÃ¼kten":11691,"atatÃ¼rk":11692,"ĠdavanÄ±n":11693,"ĠiÅŁsiz":11694,"ĠedeceÄŁi":11695,"Ġmoskova":11696,"Ġ[...]":11697,"$$nes":11698,"Ġtasavv":11699,"Ġvermekteyiz":11700,"ĠdemiÅŁti":11701,"'m":11702,"Ġnerde":11703,"Ġoturup":11704,"Ġlitre":11705,"ĠarasÄ±ndadÄ±r":11706,"ĠvatandaÅŁÄ±":11707,"Ã§alÄ±ÅŁ":11708,"merkez":11709,"$$aÄŁan":11710,"$$ediye":11711,"Ġpow":11712,"$$Ä±rnak":11713,"yapÄ±lan":11714,"$$odafone":11715,"ĠyatÄ±rÄ±mlar":11716,"bal":11717,"ĠdÄ±ÅŁÄ±ndan":11718,"Ġgiderleri":11719,"ĠkarabÃ¼k":11720,"Ġkoymak":11721,"ĠgÃ¼neydoÄŁu":11722,"ĠÃ§ektiÄŁi":11723,"lerde":11724,"$$izme":11725,"ĠÃ¼lkesi":11726,"$$lÃ¼ÄŁÃ¼ne":11727,"Ġvolkan":11728,"ĠdÃ¶neme":11729,"$$mayÄ±p":11730,"Ġpansiyon":11731,"$$arka":11732,"ĠgetirmiÅŁ":11733,"Ġdestekleyen":11734,"ĠfÃ¼z":11735,"Ġteknolojinin":11736,"Ġyatan":11737,"ĠÅŁampiyonlar":11738,"olay":11739,"$$Ã°Ã½":11740,"Ġbiten":11741,"Ġdenge":11742,"Ġfarz":11743,"Ġgazeteciler":11744,"ĠmÃ¼ÅŁterilerimizin":11745,"Ġkurulumu":11746,"Ġtahmini":11747,"ĠalanÄ±n":11748,"Ġbenzin":11749,"ĠÃ§arpÄ±cÄ±":11750,"Ġlakin":11751,"program":11752,"ĠÃ¶rnekler":11753,"ĠhemÅŁir":11754,"Ġdenildi":11755,"gerÃ§ek":11756,"taki":11757,"ĠsÃ¶zÃ¼nÃ¼":11758,"Ġ71":11759,"ĠdeÄŁiliz":11760,"ĠkÄ±lan":11761,"Ġpist":11762,"Ġrahatla":11763,"Ġsezonunda":11764,"$$lediklerini":11765,"Ġinternette":11766,"ĠÃ§ubuk":11767,"ĠboÅŁanma":11768,"Ġsesini":11769,"Ġkurallar":11770,"Ġbrezilya":11771,"Ġesin":11772,"$$iyeler":11773,"Ġiseniz":11774,"ĠkarÄ±ÅŁtÄ±rÄ±n":11775,"ĠgerektiÄŁinde":11776,"ĠanahtarÄ±":11777,"$$hh":11778,"ĠalÄ±yoruz":11779,"ĠkÄ±n":11780,"Ġtarama":11781,"ĠtutuklandÄ±":11782,"gazi":11783,"$$fiye":11784,"ĠsayÄ±sÄ±z":11785,"53":11786,"Ġyapanlar":11787,"ĠiÅŁlemlerinin":11788,"orta":11789,"Ġvadede":11790,"$$memiÅŁtir":11791,"ĠeÄŁitimini":11792,"Ġingilizce":11793,"ĠtÃ¼rb":11794,"ĠÃ¶ÄŁrencilerinin":11795,"$$ashington":11796,"$$biye":11797,"ĠbÄ±rakma":11798,"Ġsulama":11799,"ĠtekniÄŁi":11800,"Ġalex":11801,"Ġpropaganda":11802,"ĠalanÄ±ndaki":11803,"Ġartvin":11804,"Ġlib":11805,"ĠgerÃ§ekÃ§i":11806,"ĠdosyalarÄ±":11807,"$$lÃ¢h":11808,"ĠÃ§izim":11809,"$$iha":11810,"ĠdosyasÄ±":11811,"ur":11812,"$$raniye":11813,"bilg":11814,"Ġamasya":11815,"Ġyog":11816,"ĠÅŁampiyonluk":11817,"Ġotelde":11818,"bana":11819,"Ġtakibi":11820,"ĠyargÄ±tay":11821,"Ġyon":11822,"Ġ73":11823,"Ġmuhat":11824,"Ġtalepleri":11825,"$$ledikleri":11826,"ĠgeÃ§im":11827,"ĠbaÄŁÄ±ÅŁÄ±klÄ±k":11828,"ĠyaptÄ±lar":11829,"ĠmÃ¼zaker":11830,"ĠtasarÄ±":11831,"ĠgeÃ§ip":11832,"Ġeki":11833,"ĠeÄŁi":11834,"Ġpatlama":11835,"nÃ¶nÃ¼":11836,"ĠcoÄŁrafy":11837,"$$deres":11838,"$$45":11839,"Ġemzir":11840,"Ġmadrid":11841,"Ġves":11842,"Ġedilmesini":11843,"Ġdiyelim":11844,"Ġhastalarda":11845,"$$endim":11846,"$$osman":11847,"$$emeye":11848,"ĠsahasÄ±":11849,"ĠaÅŁan":11850,"lkÃ¶ÄŁretim":11851,"Ġmalum":11852,"Ġyeterlidir":11853,"ĠÃ§alÄ±ÅŁtÄ±m":11854,"Ġokullarda":11855,"$$lenin":11856,"Ġelif":11857,"Ġbart":11858,"$$mamÄ±zÄ±":11859,"ĠmantÄ±klÄ±":11860,"ĠbelirlenmiÅŁ":11861,"Ġkendiniz":11862,",âĢĿ":11863,"ĠmÃ¼dÃ¼rlÃ¼ÄŁÃ¼ne":11864,"$$miyoruz":11865,"Ġgirmesi":11866,"Ġkopyal":11867,"ĠkalkÄ±n":11868,"Ġyara":11869,"ĠyarÄ±ÅŁÄ±":11870,"Ġilgisini":11871,"ĠbakÄ±mlÄ±":11872,"Ġengellemek":11873,"Ġdeplasmanda":11874,"ĠbulunduklarÄ±":11875,"Ġlistesinde":11876,"$$edd":11877,"ĠyazÄ±nÄ±n":11878,"Ġsistemde":11879,"ĠdeÄŁiÅŁir":11880,"ĠtaÅŁÄ±maktadÄ±r":11881,"ĠkurtarÄ±":11882,"$$Ä±nÄ±p":11883,"$$mÃ¼":11884,"ĠsaklÄ±":11885,"ĠbaktÄ±m":11886,"per":11887,"$$mayÄ±nÄ±z":11888,"Ġduygusu":11889,"Ġengelliler":11890,")'":11891,"ĠÅŁÃ¼kÃ¼r":11892,"Ġnorm":11893,"Ġkabuk":11894,"ĠkatkÄ±sÄ±":11895,"$$78":11896,"Ġihbar":11897,"ĠformÃ¼l":11898,"iz":11899,"ĠdÃ¼nyaca":11900,"Ġitfaiye":11901,"ĠfaÅŁ":11902,"meh":11903,"web":11904,"Ġevrim":11905,"ĠonayÄ±":11906,"Ġsezonun":11907,"Ġkrist":11908,");":11909,"ana":11910,"Ġenter":11911,"Ġmesc":11912,"ĠerkeÄŁin":11913,"Ġdiyebilirim":11914,"Ġsitemizden":11915,"dare":11916,"Ġps":11917,"ĠbayraÄŁÄ±":11918,"Ġruhu":11919,"ĠtarayÄ±cÄ±":11920,"ĠsayÄ±larÄ±":11921,"$$sten":11922,"Ġbirileri":11923,"ĠsoÄŁu":11924,"$$aydÄ±n":11925,"ĠsoÄŁut":11926,"mÃ¼s":11927,"Ġacent":11928,"Ġvarol":11929,"ĠkararÄ±nÄ±n":11930,"Ġekleyip":11931,"Ġfilan":11932,"$$ersen":11933,"Ġ76":11934,"Ġtalebinde":11935,"$$ket":11936,"$$unuzda":11937,"Ġmakul":11938,"ĠÅŁanslÄ±":11939,"ĠlirasÄ±":11940,"Ġmam":11941,"ĠdemirtaÅŁ":11942,"$$anÄ±yla":11943,"ĠadÄ±nda":11944,"Ġmetrekar":11945,"ĠsÄ±caklÄ±ÄŁÄ±":11946,"ĠÅŁeklindeki":11947,"ĠsaldÄ±rgan":11948,"var":11949,"$$juv":11950,"ĠdavutoÄŁlu":11951,"ĠbÃ¶lgelerinde":11952,"ĠteÅŁhis":11953,"ĠdeÄŁiÅŁti":11954,"Ġopt":11955,"stih":11956,"Ġinceleyebilirsiniz":11957,"Ġbirbirini":11958,"Ġadliy":11959,"Ìĩ,":11960,"Ġolanlara":11961,"ĠÅŁimÅŁek":11962,"Ġsub":11963,"ĠavantajlÄ±":11964,"Ġhidro":11965,"Ġarnavut":11966,"ĠiÅŁyeri":11967,"Ġkelimesi":11968,"Ġkesint":11969,"Ġalarm":11970,"$$emde":11971,"ĠkuruluÅŁlar":11972,"ĠÃ§akÄ±r":11973,"$$diki":11974,"Ġmaddesine":11975,"ĠhesabÄ±na":11976,"ĠparfÃ¼m":11977,"Ġsamim":11978,"ĠÃ¶neriler":11979,"Ġgrev":11980,"$$une":11981,"ĠÃ¶neri":11982,"ĠgeÃ§irilen":11983,"Ġressam":11984,"$$box":11985,"bunu":11986,"ĠyÃ¼rÃ¼tÃ¼l":11987,"Ġuyu":11988,"Ġveriyorum":11989,"ĠbahÃ§esi":11990,"ĠsÃ¼recine":11991,"Ġvermeyi":11992,"$$ettin":11993,"ĠalmanÄ±z":11994,"ĠatÄ±n":11995,"ĠsahasÄ±nda":11996,"Ġytl":11997,"Ġhint":11998,"ĠÃ¶nerileri":11999,"Ġetmedi":12000,"Ġarif":12001,"Ġimaj":12002,"ĠaÃ§Ä±lacak":12003,"ĠkanalÄ±nda":12004,"fotoÄŁraf":12005,"$$ekil":12006,"Ġederse":12007,"Ġsertifika":12008,"$$zaman":12009,"ĠyollarÄ±nÄ±":12010,"ĠvaliliÄŁi":12011,"43":12012,"Ġhazin":12013,"ĠsÄ±Ã§":12014,"Ġnimet":12015,"Ġnoter":12016,"ĠpirinÃ§":12017,"$$ilemez":12018,"ĠzÄ±r":12019,"$$allÄ±":12020,"ĠgeliÅŁmesi":12021,"hoc":12022,"Ġbursaspor":12023,"Ġilde":12024,"ĠÃ§alÄ±ÅŁmalarda":12025,"$$lerinizin":12026,"ĠkÄ±skan":12027,"Ġgeneral":12028,"$$eÅŁme":12029,"$$tÄ±nÄ±n":12030,"Ġkastamonu":12031,"bin":12032,"halk":12033,"ĠyÃ¶nden":12034,"ĠsÃ¶yleyebiliriz":12035,"ĠkÃ¼fÃ¼r":12036,"Ġyetkin":12037,"$$ral":12038,"Ġisparta":12039,"ĠsaygÄ±n":12040,"Ġtadil":12041,"$$oÅŁa":12042,"Ġanlatmaya":12043,"$$soy":12044,"Ġsilik":12045,"Ġaltyaz":12046,"Ġdersin":12047,"ĠÅŁartlarda":12048,"$$esten":12049,"Ġziya":12050,"ĠÃ§oktan":12051,"$$abiliyorsunuz":12052,"Ġtatb":12053,"Ġmolek":12054,"Ġbini":12055,"$$ebilme":12056,"ĠalbÃ¼mÃ¼":12057,"ĠÃ§amur":12058,"Ã§an":12059,"2019":12060,"$$larÄ±nÄ±zla":12061,"Ġtarihini":12062,"Ġkin":12063,"ĠkarÄ±ÅŁÄ±mÄ±":12064,"Ġpremi":12065,"Ġburda":12066,"ĠseÃ§imler":12067,"Ġdereceye":12068,"ĠeklenmiÅŁ":12069,"ĠayÄ±rt":12070,"Ġotuz":12071,"Ġortaokulu":12072,"Ġadap":12073,"Ġgelecektir":12074,"$$eneÄŁini":12075,"ĠiÅŁareti":12076,"ĠÃ¶ngÃ¶rÃ¼len":12077,"Ġhesaba":12078,"Ġoperasyonda":12079,"Ġbilmem":12080,"ĠgÃ¼nÃ¼ne":12081,"Ġ78":12082,"$$amÄ±n":12083,"ĠkÃ¢ÄŁÄ±":12084,"ĠaldÄ±ktan":12085,"Ġrey":12086,"$$bit":12087,"bul":12088,"ĠÃ¼niversiteler":12089,"$$jik":12090,"ĠÅŁur":12091,"Ġkonumda":12092,"Ġkoyan":12093,"Ġertelen":12094,"Ġmahallesinde":12095,"Ġziyareti":12096,"ĠolursanÄ±z":12097,"ĠbelÃ§ika":12098,"Ġmag":12099,"$$cer":12100,"Ġmaster":12101,"ĠÃ¶zeti":12102,"Ġbeklemek":12103,"$$oksi":12104,"Ġdern":12105,"Ġkala":12106,"ĠsÄ±ralama":12107,"ĠmeraklÄ±":12108,"$$71":12109,"ĠtÃ¼nel":12110,"Ġaktaran":12111,"Ġyazmaya":12112,"ĠÃ¶zelliklere":12113,"ĠgÃ¼nlerinde":12114,"$$dÃ¼zÃ¼":12115,"ĠdikiÅŁ":12116,"Ġfiziki":12117,"$$port":12118,"$$ikli":12119,"ĠÃ§evrimiÃ§i":12120,"Ġgelmeye":12121,"Ġgeceleri":12122,"Ġtelefonla":12123,"ĠÃ§Ä±kmaz":12124,"ĠdÃ¼ÅŁÃ¼ndÃ¼m":12125,"Ġelektro":12126,"ĠhesabÄ±ndan":12127,"Ġtransferi":12128,"ĠgÃ¼lÃ¼ms":12129,"ĠiÃ§indir":12130,"ĠÃ§arpÄ±ÅŁ":12131,"ĠÃ¶ÄŁÃ¼t":12132,"Ġout":12133,"Ġspa":12134,"Ġog":12135,"Ġakademi":12136,"Ġkurumun":12137,"Ġsubay":12138,"Ġpl":12139,"Ġsuresi":12140,"anadolu":12141,"ĠkazasÄ±":12142,"ĠsanÄ±yor":12143,"Ġyu":12144,"ĠhayvanlarÄ±n":12145,"Ġelle":12146,"ĠayrÄ±calÄ±k":12147,"Ġceo":12148,"$$Ð½":12149,"Ġbiyolojik":12150,"ĠiÅŁle":12151,"Ġetiketler":12152,"ĠdÃ¼ÅŁÃ¼nmek":12153,"$$eciler":12154,"$$biyotik":12155,"ĠteÅŁeb":12156,"46":12157,"$$ikan":12158,"Ġekipler":12159,"ĠÅŁÃ¼phe":12160,"Ġmacar":12161,"ĠantrenÃ¶r":12162,"ĠtanÄ±mÄ±":12163,"ĠkazanmÄ±ÅŁ":12164,"ĠÂĳ":12165,"ĠterÃ¶rle":12166,"$$cd":12167,"ĠyurtdÄ±ÅŁÄ±nda":12168,"ĠiÅŁsizlik":12169,"Ġgiyin":12170,"Ġbellek":12171,"Ġhakik":12172,"Ġefsane":12173,"$$azar":12174,"Ġsportif":12175,"ĠiÅŁÃ§ilerin":12176,"Ġdant":12177,"ĠbaÅŁladÄ±ÄŁÄ±nÄ±":12178,"ĠbaÅŁarÄ±sÄ±":12179,"Ġkolu":12180,"fener":12181,"$$Ã¼nÃ¼ze":12182,"$$larin":12183,"Ġbulup":12184,"Ġetmenin":12185,"ĠbaÅŁlamÄ±ÅŁtÄ±":12186,"Ġkrip":12187,"Ġtekne":12188,"ĠheyecanlÄ±":12189,"Ġhizmetlerin":12190,"Ġbeylik":12191,"ĠkaydÄ±yla":12192,"ĠtÄ±kanÄ±klÄ±ÄŁÄ±":12193,"Ġgenelkurmay":12194,"oÄŁ":12195,"Ġpsikiyat":12196,"$$siyum":12197,"$$aleti":12198,"$$ory":12199,"insan":12200,"ĠaÄŁÄ±rlÄ±ÄŁÄ±":12201,"tas":12202,"ĠÅŁaÅŁkÄ±n":12203,"ĠoluÅŁturulmasÄ±":12204,"$$Ã§iliÄŁi":12205,"Ġkamuoyu":12206,"ĠolanaÄŁÄ±":12207,"Ġyeterlilik":12208,"49":12209,"$$amÄ±zdan":12210,"yaklaÅŁÄ±k":12211,"Ġmaltepe":12212,"Ġomur":12213,"Ġgarantili":12214,"$$ÅŁa":12215,"$$ider":12216,"$$evÃ®":12217,"ĠprogramÄ±nÄ±":12218,"ĠprofesÃ¶r":12219,"Â§":12220,"Ġsing":12221,"ĠiÅŁÃ§iler":12222,"ĠkendiliÄŁinden":12223,"Ġdengeli":12224,"ĠbaÅŁladÄ±lar":12225,"$$ilmi":12226,"Ġderim":12227,"ĠyapÄ±lar":12228,"ĠgÃ¶revlileri":12229,"Ġmasaya":12230,"Ġseg":12231,"Ġvurgulan":12232,"$$yacaÄŁÄ±m":12233,"ĠalacaÄŁÄ±nÄ±z":12234,"ĠbuÃ§uk":12235,"$$ily":12236,"ĠkullanÄ±cÄ±lara":12237,"$$limi":12238,"ĠdeyiÅŁ":12239,"Ġhy":12240,"ĠÃ¶ldÃ¼rÃ¼l":12241,"ĠdÃ¼nyasÄ±na":12242,"Ġbut":12243,"Ġhepsinin":12244,"Ġsesleri":12245,"Ġflash":12246,"ĠyaÅŁÄ±ndan":12247,"ĠÃ¶dÃ¼n":12248,"$$iliÄŁe":12249,"$$miÅŁtim":12250,"ĠsunulmaktadÄ±r":12251,"$$ayeti":12252,"ĠparÃ§alan":12253,"Ġakif":12254,"Ġmid":12255,"ĠÃ§oban":12256,"ĠdÃ¼zeyi":12257,"Ġnormalde":12258,"ĠmÃ¼him":12259,"ĠgÃ¶zlerini":12260,"ĠanlaÅŁÄ±lÄ±r":12261,"ĠgeÃ§irildi":12262,"Ġzorunludur":12263,"Ġmerakla":12264,"ĠaradÄ±ÄŁÄ±nÄ±z":12265,"ĠyÃ¶netiminde":12266,"$$veÃ§":12267,"Ġsiber":12268,"$$enlerin":12269,"ĠgÃ¶rÃ¼ntÃ¼sÃ¼":12270,"ĠhavalandÄ±r":12271,"Ġtetk":12272,"ĠÃ§atÄ±ÅŁma":12273,"ĠÃ§alÄ±ÅŁarak":12274,"$$isy":12275,"Ġtaksi":12276,"$$irse":12277,"ĠbaÅŁaran":12278,"ĠbirÃ§":12279,"Ġvaat":12280,"ĠÃ¶nÃ¼ndeki":12281,"Ġmuhafaz":12282,"$$sinde":12283,"Ġkeb":12284,"ĠkuÅŁat":12285,"Ġobjektif":12286,"Ġmuaf":12287,"$$hir":12288,"ĠsÃ¶zleÅŁmeli":12289,"$$taur":12290,"ĠgÃ¶rÃ¼ÅŁÃ¼":12291,"ĠborÃ§lu":12292,"iyi":12293,"Ġsans":12294,"Ġworld":12295,"$$ames":12296,"ĠÃ§Ä±kardÄ±ÄŁÄ±":12297,"Ġakan":12298,"Ġyahu":12299,"ĠoranÄ±nÄ±n":12300,"ĠalÃ§ak":12301,"terÃ¶r":12302,"ĠÃ¶rn":12303,"Ġizleyebilirsiniz":12304,"Ġderinlik":12305,"Ġediniz":12306,"Ġultr":12307,"ĠkullanÄ±lmÄ±ÅŁtÄ±r":12308,"ĠgerektiÄŁine":12309,"Ġtaciz":12310,"$$siyet":12311,"Ġkonumunda":12312,"Ġone":12313,"Ġlens":12314,"ĠÃ¶g":12315,"$$lil":12316,"Ġdeyince":12317,"ĠolmayacaktÄ±r":12318,"neden":12319,"95":12320,"$$Ã¼ltÃ¼":12321,"ĠÃ¶nlemler":12322,"ĠaÃ§lÄ±k":12323,"ĠfaydasÄ±":12324,"Ġligde":12325,"Ġita":12326,"ĠtuÅŁuna":12327,"ĠgÃ¶rdÃ¼ÄŁÃ¼m":12328,"ĠmÃ¼tev":12329,"ĠuygulamayÄ±":12330,"Ġyararlanmak":12331,"$$lib":12332,"Ġerkan":12333,"Ġreaksiyon":12334,"$$lÄ±nÄ±n":12335,"Ġbenzet":12336,"Ġalevi":12337,"ĠkameralÄ±":12338,"ĠgÃ¶nderdiÄŁi":12339,"Ġvoleybol":12340,"ĠniteliÄŁi":12341,"Ġbelirtiliyor":12342,"ĠistemiÅŁ":12343,"Ġniz":12344,"ĠbaÅŁakÅŁehir":12345,"$$ifor":12346,"$$sir":12347,"Ġmuht":12348,"ĠmaÃ§a":12349,"ĠkoÅŁu":12350,"$$dÃ¼ler":12351,"ĠmarkanÄ±n":12352,"Ġbunda":12353,"ĠtaraflÄ±":12354,"ĠyayÄ±nÄ±":12355,"ĠtÃ¼rklerin":12356,"Ġmav":12357,"Ġlavab":12358,"ĠÃ§atal":12359,"Ġakademisi":12360,"ĠfÄ±rÄ±nda":12361,"ĠaÃ§Ä±sÄ±":12362,"ĠyapÄ±yorlar":12363,"ĠkadÄ±nlarda":12364,"Ġliber":12365,"$$gusu":12366,"ĠklasÃ¶r":12367,"Ġork":12368,"ĠyeÅŁ":12369,"ĠsÄ±nÄ±flandÄ±r":12370,"ĠkadarÄ±yla":12371,"Ġgiys":12372,"ĠmeslektaÅŁ":12373,"yurt":12374,"ĠdanÄ±ÅŁmanÄ±":12375,"ĠsanÄ±":12376,"$$mun":12377,"ĠbaÅŁkanlÄ±ÄŁÄ±na":12378,"ĠgÃ¼Ã§lÃ¼k":12379,"bor":12380,"dav":12381,"ĠyÃ¶netmeni":12382,"Ġkalbi":12383,"$$masa":12384,"Ġadamlar":12385,"Ġdeyim":12386,"Ġnotu":12387,"ĠbaÅŁvurularÄ±":12388,"Ġtalima":12389,"ĠÃ¼lkelere":12390,"ĠkolaylÄ±k":12391,"Ġibr":12392,"$$sunun":12393,"$$ny":12394,"Ġkayg":12395,"ĠÃ§ekiÅŁ":12396,"$$tÄ±sÄ±":12397,"ĠÃ¶zgÃ¼rlÃ¼ÄŁÃ¼":12398,"ĠkaÃ§aÄŁÄ±":12399,"ĠgÃ¶rdÃ¼ÄŁÃ¼mÃ¼z":12400,"ĠÃ¶zenle":12401,"ĠsaÃ§ma":12402,"$$arÅŁ":12403,"Ġkirli":12404,"ĠÅŁifre":12405,"Ġasp":12406,"ĠbÄ±rakan":12407,"Ġpasif":12408,"taÅŁ":12409,"ĠonaylÄ±":12410,"ĠmÃ¼cadelede":12411,"Ġneye":12412,"ĠÃ§erÃ§eve":12413,"Ġkonusunu":12414,"ĠgÃ¶zyaÅŁ":12415,"Ġyerlerden":12416,"$$iyse":12417,"Ġistismar":12418,"Ġperiyo":12419,"ĠdeÄŁerlendirmek":12420,"ĠcihazÄ±n":12421,"ĠkullanÄ±lmÄ±ÅŁ":12422,"Ġbekler":12423,"Ġvadisi":12424,"ĠÃ§erÃ§evede":12425,"Ġkenan":12426,"ĠfabrikasÄ±":12427,"Ġtepe":12428,"ĠkonuÅŁmak":12429,"$$latma":12430,"ĠyoÄŁunluk":12431,"fark":12432,"ĠusulÃ¼":12433,"Ġneyi":12434,"$$eet":12435,"ĠplanlarÄ±":12436,"Ġportekiz":12437,"Ġhavuzu":12438,"$$Ä±lamaz":12439,"Ġolmam":12440,"$$ou":12441,"$$vat":12442,"ĠsÃ¼reyle":12443,"$$Ä±ldÄ±m":12444,"Ġgitar":12445,"ĠkatÄ±lÄ±yor":12446,"ĠÃ¶zelleÅŁtir":12447,"ĠÃ§evresi":12448,"Ġmerhamet":12449,"ĠÅŁehre":12450,"Ġhususunda":12451,"ĠuygulamalÄ±":12452,"$$liyorum":12453,"Ġaa":12454,"ĠkatÄ±lma":12455,"$$til":12456,"Ġkendim":12457,"ĠyayÄ±nla":12458,"ĠyiÄŁit":12459,"ĠhalkÄ±na":12460,"ĠÃ§evresel":12461,"Ġentegr":12462,"ĠdoÄŁrultu":12463,"ĠgÃ¶zde":12464,"51":12465,"ĠyÃ¼reÄŁ":12466,"$$iba":12467,"$$emediÄŁi":12468,"$$karahisar":12469,"$$aden":12470,"$$tedir":12471,"Ġaranan":12472,"ĠÃ§iftÃ§i":12473,"$$adam":12474,"Ġmotivasyon":12475,"$$lÄ±m":12476,"ĠarÄ±ndÄ±r":12477,"ĠseÃ§ilmiÅŁ":12478,"$$ebe":12479,"ĠsÄ±ralarÄ±nda":12480,"ĠiÅŁlemlerin":12481,"$$gay":12482,"ÌĩâĢĻ":12483,"Ġnihat":12484,"$$Ã§inin":12485,"ĠbaÅŁlamasÄ±":12486,"ĠpolitikalarÄ±":12487,"Ġhavlu":12488,"ĠuygulamanÄ±n":12489,"$$main":12490,"ĠÃ§aresiz":12491,"$$leyebilir":12492,"Ġsili":12493,"Ġtekin":12494,"ĠhazÄ±rlama":12495,"Ġbirisidir":12496,"ĠzanlÄ±":12497,"Ġbeklentiler":12498,"Ġbulunacak":12499,"Ġhayret":12500,"Ġ77":12501,"Ġalf":12502,"ĠgeÃ§miÅŁi":12503,"Ġbulabilir":12504,"Ġnitelikte":12505,"Ġnuri":12506,"Ġanlaya":12507,"ĠbulmuÅŁ":12508,"$$ikleri":12509,"$$dÄ±ÄŁÄ±mÄ±":12510,"$$esk":12511,"Ġdurur":12512,"Ġoluyoruz":12513,"Ġverdiler":12514,"Ġguzel":12515,"ĠÃ§Ä±ktÄ±ÄŁÄ±nÄ±":12516,"ĠuÄŁruna":12517,"ĠÃ§alÄ±ÅŁmayÄ±":12518,"ĠsarÄ±ÅŁÄ±n":12519,"Ġsosyalist":12520,"ĠyÃ¶nÃ¼":12521,"car":12522,"Ġbulunmakta":12523,"ĠbuluÅŁtu":12524,"ĠyÃ¼rÃ¼ten":12525,"Ġaydan":12526,"Ġbenzersiz":12527,"Ġzev":12528,"ĠamacÄ±mÄ±z":12529,"Ġofisi":12530,"$$90":12531,"sim":12532,"ĠkoÅŁullarda":12533,"ĠolmadÄ±ÄŁÄ±na":12534,"Ġisteriz":12535,"ĠsÃ¶ylenen":12536,"Ġkazada":12537,"Ġtutarak":12538,"Ġharcama":12539,"Ġsergisi":12540,"$$inizdeki":12541,"ĠhÄ±rsÄ±zlÄ±k":12542,"Ġdivan":12543,"Ġpdf":12544,"Ġkimseyi":12545,"ĠkoÅŁullar":12546,"Ġnedenlerle":12547,"Ġgeli":12548,"Ġtsk":12549,"Ġ1998":12550,"Ġyetkisi":12551,"Ġboyama":12552,"ĠbaÅŁarÄ±ya":12553,"ĠihtiyacÄ±mÄ±z":12554,"Ġmaddelerin":12555,"ĠgittikÃ§e":12556,"$$lenebilir":12557,"Ġfaaliyetler":12558,"kor":12559,"Ġihrac":12560,"$$Ä±nÄ±zla":12561,"$$dest":12562,"Ġnemlendir":12563,"ĠprosedÃ¼r":12564,"Ġgelinlik":12565,"Ġinternetten":12566,"ĠdakikalÄ±k":12567,"ĠrÃ¼ÅŁ":12568,"ĠtesettÃ¼r":12569,"Ġcafe":12570,"Ġersoy":12571,"ĠtutulmasÄ±":12572,"Ġobez":12573,"sabah":12574,"Ġmesajlar":12575,"ĠyapÄ±sÄ±nÄ±":12576,"ĠtanÄ±mak":12577,"ĠaÃ§Ä±lmÄ±ÅŁ":12578,"$$iÄŁde":12579,"Ġdemirel":12580,"$$ica":12581,"ĠazÄ±n":12582,"$$ersek":12583,"$$fir":12584,"Ġyetkililer":12585,"ĠaÅŁaÄŁÄ±ya":12586,"ĠaÃ§Ä±ktÄ±r":12587,"Ġkalesi":12588,"$$gÃ¢h":12589,"ĠÃ¼yelerine":12590,"Ġaileleri":12591,"ĠÃ¶ÄŁretmenliÄŁi":12592,"$$larÄ±mÄ±n":12593,"ĠsuÃ§u":12594,"ĠbulunmuÅŁ":12595,"Ġsinop":12596,"$$lendiÄŁini":12597,"ĠcoÄŁrafya":12598,"Ġmenderes":12599,"Ġgarantisi":12600,"Ġgebze":12601,"ĠyayÄ±nladÄ±":12602,"Ġvazif":12603,"$$Ã¼sk":12604,"$$cay":12605,"ĠniÃ§in":12606,"ĠkÄ±dem":12607,"$$Ä±labilmesi":12608,"$$maktadÄ±rlar":12609,"Ġparametr":12610,"ĠbulduÄŁu":12611,"sin":12612,"$$lanmaya":12613,"siv":12614,"ĠtarafÄ±na":12615,"ĠliralÄ±k":12616,"ĠsÃ¼rer":12617,"Ġzordur":12618,"$$Ä±lmadan":12619,"ĠkatÄ±lÄ±mÄ±":12620,"ĠhatasÄ±":12621,"Ġzihniyet":12622,"kÃ¼ltÃ¼r":12623,"Ġdamg":12624,"ĠbildiÄŁimiz":12625,"Ġsahiplerine":12626,"Ġsahneye":12627,"Ġilkokul":12628,"$$ix":12629,"ĠtÃ¼tÃ¼n":12630,"Ġgaliba":12631,"google":12632,"$$casÄ±":12633,"ĠeÄŁitimleri":12634,"mÃ¼ÅŁ":12635,"Ġtermal":12636,"Ġcelal":12637,"ĠtemasÄ±":12638,"Ġmuazz":12639,"$$Ã¢k":12640,"$$Ã»m":12641,"54":12642,"Ġmesut":12643,"ĠÃ§evreye":12644,"Ġnun":12645,"ĠbaÄŁlantÄ±sÄ±ndan":12646,"Ġmevl":12647,"Ġhalkla":12648,"ĠÅŁampiyonu":12649,"Ġpin":12650,"hiz":12651,"$$eld":12652,"$$ics":12653,"ĠyaÅŁayacak":12654,"$$giniz":12655,"Ġteorik":12656,"$$lanÄ±p":12657,"ĠbaÄŁlama":12658,"Ġdikkatini":12659,"$$fte":12660,"ĠalÄ±ndÄ±ÄŁÄ±nda":12661,"Ġstu":12662,"ĠsaÄŁlayabilirsiniz":12663,"ĠkayÄ±tlarÄ±":12664,"$$anÄ±zda":12665,"$$kanÄ±n":12666,"ĠkÄ±rÄ±m":12667,"ĠyÄ±lÄ±nÄ±":12668,"$$meme":12669,"Ġ900":12670,"$$stal":12671,"ĠbeÄŁeni":12672,"Ġsaadet":12673,"$$ript":12674,"Ġayv":12675,"Ġkonudaki":12676,"$$lass":12677,"Ġfoto":12678,"$$eto":12679,"$$emiÅŁtir":12680,"ĠtasarÄ±mlarÄ±":12681,"Ġeksen":12682,"$$ilan":12683,"ĠkarÅŁÄ±tÄ±":12684,"Ġburn":12685,"ĠtanÄ±tÄ±mÄ±":12686,"Ġaletleri":12687,"Ġjet":12688,"$$iyorsa":12689,"ĠbakÄ±rkÃ¶y":12690,"$$erg":12691,"Ġgecenin":12692,"ĠimkÃ¢nÄ±":12693,"Ġverebilirsiniz":12694,"ĠÃ¼yeliÄŁi":12695,"$$opi":12696,"ĠsokaÄŁa":12697,"mÃ¼z":12698,"$$anam":12699,"Ġtelif":12700,"$$lÄ±ÄŁÄ±nca":12701,"Ġseyirc":12702,"Ġmekke":12703,"siyas":12704,"$$fice":12705,"$$eyip":12706,"Ġcat":12707,"ĠataÅŁehir":12708,"Ġnehir":12709,"$$olsun":12710,"$$ule":12711,"Ġ74":12712,"196":12713,"Ġsonuca":12714,"$$ÄŁimizi":12715,"ĠmÃ¼hendisi":12716,"ĠsayÄ±sÄ±nda":12717,"$$iÄŁinin":12718,"Ġkimseler":12719,"ĠmÃ¼tte":12720,"ĠkurslarÄ±":12721,"erdoÄŁan":12722,"ĠÃ§elebi":12723,"Ġbine":12724,"42":12725,"ĠhÃ¼kmÃ¼nde":12726,"Ġrec":12727,"ĠÃ¼lkelerinde":12728,"$$unan":12729,"ĠsÄ±ralan":12730,"$$ain":12731,"Ġdenizcilik":12732,"ĠyÃ¶netmeliÄŁin":12733,"ĠbildiÄŁiniz":12734,"Ġkaleci":12735,"ĠÃ§orap":12736,"ĠÃ§Ä±kabilir":12737,"Ġkalitede":12738,"ĠyazÄ±p":12739,"Ġeksiklik":12740,"Ġrehabilitasyon":12741,"Ġamp":12742,"Ġkararnam":12743,"Ġcanav":12744,"ĠameliyatÄ±":12745,"Ġ88":12746,"ĠgÃ¶revine":12747,"$$31":12748,"ĠtalimatÄ±":12749,"ĠyanÄ±nÄ±zda":12750,"aÅŁaÄŁÄ±":12751,"Ġandan":12752,"$$oÄŁul":12753,"saat":12754,"Ġburc":12755,"Ġekranda":12756,"dik":12757,"ĠfiyatlarÄ±nÄ±":12758,"$$Ã§ay":12759,"Ġidam":12760,"Ġhizmetlere":12761,"ĠasÄ±r":12762,"Ġvermiyor":12763,"ĠsorularÄ±nÄ±":12764,"$$32":12765,"Ġmedres":12766,"$$ezya":12767,"$$eliÄŁin":12768,"$$esih":12769,"$$ahan":12770,"sm":12771,"$$ota":12772,"ĠeÄŁil":12773,"$$deler":12774,"almanya":12775,"Ġfelaket":12776,"ĠhatÄ±rlatan":12777,"Ġresimli":12778,"$$adÄ±ÄŁÄ±nÄ±":12779,"ĠgÃ¶rÃ¼ÅŁleri":12780,"nasÄ±l":12781,"ĠÃ§apraz":12782,"Ġfarket":12783,"Ġokurken":12784,"ĠkaldÄ±rmak":12785,"47":12786,"Ġbirimleri":12787,"ÅŁin":12788,"$$aktif":12789,"kamu":12790,"Ġolunur":12791,"yeÅŁil":12792,"$$ehr":12793,"Ġayhan":12794,"Ġyapmakta":12795,"ĠgÃ¶stermiÅŁ":12796,"Ġgezin":12797,"Ġoluruz":12798,"Ġistin":12799,"ĠsÃ¼m":12800,"ĠÃ§eÅŁidi":12801,"Ġpartiler":12802,"$$--------":12803,"ĠoyuncularÄ±n":12804,"ĠkazandÄ±ÄŁÄ±":12805,"turk":12806,"Ġbahsede":12807,"Ġolabilmektedir":12808,"Ġelimizden":12809,"$$ifer":12810,"ĠaÃ§Ä±klamalarÄ±":12811,"ĠvatandaÅŁÄ±n":12812,"Ġkoyarak":12813,"Ġsandaly":12814,"Ġversin":12815,"ĠmÃ¢n":12816,"Ġsudan":12817,"ĠaÃ§Ä±kÃ§asÄ±":12818,"ĠbaÅŁkalarÄ±nÄ±n":12819,"Ġsahiplerinin":12820,"yazar":12821,"Ġmerk":12822,"$$amasÄ±":12823,"Ġsunulacak":12824,"ĠyÃ¶resel":12825,"$$wood":12826,"buna":12827,"$$ue":12828,"ĠÃ§alÄ±ÅŁmasÄ±nÄ±":12829,"$$ileceÄŁi":12830,"ĠbaÄŁÄ±msÄ±zlÄ±k":12831,"Ġticareti":12832,"$$lini":12833,"Ġ62":12834,"ĠimalatÄ±":12835,"hz":12836,"ĠaÃ§Ä±yor":12837,"ĠaÃ§arak":12838,"ĠkarlÄ±":12839,"ĠtaÅŁÄ±yÄ±":12840,"ĠÄ±sÄ±n":12841,"hsan":12842,"Ġtik":12843,"$$ann":12844,"Ġilgil":12845,"$$Ã¶v":12846,"Ġkudret":12847,"Ġdv":12848,"Ġiskel":12849,"ĠÅŁeylerin":12850,"$$____":12851,"$$laki":12852,"$$ref":12853,"Ġindirimli":12854,"Ġseninle":12855,"suriye":12856,"ĠÃ¶nemine":12857,"ĠÃ§Ã¶l":12858,"ĠiÅŁtah":12859,"Ġkomedi":12860,"med":12861,"ĠÃ¼retmek":12862,"$$acaklar":12863,"Ġriskini":12864,"$$bre":12865,"Ġekrem":12866,"Ġmenkul":12867,"Ġhalbuki":12868,"ÅŁirk":12869,"ĠstandartlarÄ±":12870,"Ġedilmesine":12871,"Ġsundu":12872,"ĠhazÄ±rlanmasÄ±":12873,"ĠyÃ¼ze":12874,"Ġsunuluyor":12875,"Ġyaralanan":12876,"$$dyo":12877,"$$lerse":12878,"ĠeÄŁr":12879,"Ġfonu":12880,"$$gÃ¶z":12881,"Ġdere":12882,"ĠayrÄ±lÄ±r":12883,"ĠÃ§ankaya":12884,"ĠÃ§arÅŁÄ±":12885,"$$lunun":12886,"$$ovasyon":12887,"osmanlÄ±":12888,"ĠkuÅŁkusuz":12889,"Ġorkest":12890,"ĠÄ±ÅŁÄ±ÄŁÄ±nda":12891,"ĠÃ§eyr":12892,"ĠÅŁab":12893,"Ġbig":12894,"stem":12895,"$$Ä±mÄ±zla":12896,"Ġwh":12897,"Ġtorun":12898,"$$ym":12899,"Ġprojeye":12900,"$$elerindeki":12901,"ĠyapÄ±lÄ±rken":12902,"ĠsuÃ§undan":12903,"Ġpilav":12904,"Ġbuyurdu":12905,"Ġkonsolos":12906,"$$tiniz":12907,"Ġuyk":12908,"Ġoynanacak":12909,"$$amadÄ±m":12910,"ĠgeÃ§ebilirsiniz":12911,"$$ifa":12912,"Ġseverek":12913,"Ġdist":12914,"Ġcehennem":12915,"ĠbingÃ¶l":12916,"Ġsende":12917,"mparatorluÄŁu":12918,"Ġmisin":12919,"Ġpendik":12920,"$$obb":12921,"$$dÄ±ran":12922,"ĠdesteÄŁini":12923,"Ġezber":12924,"Ġvurdu":12925,"Ġsevindir":12926,"yen":12927,"ĠkullandÄ±ÄŁÄ±mÄ±z":12928,"ĠresmÃ®":12929,"ĠfÄ±st":12930,"$$era":12931,"Ġbinali":12932,"ĠminibÃ¼s":12933,"Ġkobi":12934,"ĠyapmalÄ±":12935,"Ġkiz":12936,"ĠeÅŁim":12937,"ĠÃ§Ä±nar":12938,"$$esif":12939,"ĠÃ¼rettiÄŁi":12940,"cen":12941,"$$artma":12942,"Ġsayfalar":12943,"ĠdesteÄŁiyle":12944,"Ġambar":12945,"Ġtasarlanan":12946,"Ġrestaur":12947,"ĠtakÄ±lan":12948,"ĠuzmanlarÄ±":12949,"ĠÃ¶ÄŁrendim":12950,"$$oma":12951,"ĠparanÄ±n":12952,"ĠsÃ¶ylÃ¼yorum":12953,"ĠÃ§Ä±karken":12954,"Ġyelken":12955,"ĠÃ§ekip":12956,"$$36":12957,"Ġtiyatrosu":12958,"ĠgÃ¼venliÄŁini":12959,"ĠalÄ±ntÄ±":12960,"ĠyapÄ±sal":12961,"Ġmb":12962,"$$dis":12963,"Ġdat":12964,"lere":12965,"$$lig":12966,"kab":12967,"ĠekranÄ±":12968,"Ġsorunlara":12969,"ĠyÃ¼rÃ¼tme":12970,"ĠboÅŁa":12971,"$$erkan":12972,"ĠadÄ±mÄ±":12973,"ĠgÃ¶mlek":12974,"ĠoluÅŁturmaktadÄ±r":12975,"ĠyapÄ±da":12976,"$$oyun":12977,"ĠÃ¶ÄŁÃ¼n":12978,"ĠbulaÅŁÄ±k":12979,"$$alaÅŁ":12980,"ĠelemanÄ±":12981,"ĠyakÄ±nlarÄ±":12982,"Ġbitkiler":12983,"Ġkorid":12984,"Ġdurumdur":12985,"Ġbilerek":12986,"ĠgÃ¼ldÃ¼r":12987,"ĠyakasÄ±":12988,"Ġsimg":12989,"Ġotomasyon":12990,"ĠaraÅŁtÄ±rmaya":12991,"adana":12992,"statistik":12993,"ĠolduÄŁumuzu":12994,"$$anak":12995,"ĠÅŁarkÄ±sÄ±":12996,"Ġwashington":12997,"ĠÃ¶yl":12998,"Ġkalori":12999,"$$Ã»lullah":13000,"Ġyou":13001,"ĠkapsamÄ±ndaki":13002,"ĠsÄ±kÄ±ntÄ±lar":13003,"ĠbeyoÄŁlu":13004,"Ġesmer":13005,"ĠÅŁiÅŁli":13006,"Ġzirvesi":13007,"$$king":13008,"ĠbazlÄ±":13009,"selam":13010,"$$ling":13011,"ĠgÃ¶recek":13012,"$$ideki":13013,"ĠaktardÄ±":13014,"Ġpos":13015,"Ġyerlerinde":13016,"ĠayaÄŁÄ±":13017,"59":13018,"ĠbambaÅŁ":13019,"ĠkaldÄ±k":13020,"Ġkompoz":13021,"Ġmuv":13022,"Ġzahmet":13023,"Ġaleyhi":13024,"Ġyozgat":13025,"Ġkarikat":13026,"Ġantibiyotik":13027,"$$Ä±nÄ±zdaki":13028,"ĠstadÄ±":13029,"ĠyarÄ±sÄ±nda":13030,"$$ancÄ±":13031,"ĠkoyduÄŁu":13032,"ĠuÄŁrat":13033,"Ġsoluk":13034,"$$leden":13035,"Ġemri":13036,"Â²":13037,"ĠiÅŁtirak":13038,"Ġkorkusu":13039,"Ġdestekler":13040,"Ġprojesinin":13041,"ĠkitabÄ±nda":13042,"ĠsonuÃ§larÄ±na":13043,"ĠzulÃ¼m":13044,"ĠhÃ¼kmÃ¼":13045,"ĠyoÄŁunlaÅŁ":13046,"Ġrent":13047,"Ġzihin":13048,"ĠsarÄ±msak":13049,"Ġsabun":13050,"ĠsatÄ±m":13051,"Ġmanav":13052,"$$Ä±lmalÄ±":13053,"ĠkardeÅŁler":13054,"Ġnihai":13055,"Ġanon":13056,"Ġalmanca":13057,"ĠgeÃ§tikÃ§e":13058,"ĠuzunluÄŁu":13059,"ĠÄ±z":13060,"ĠyÃ¼zÃ¼k":13061,"Ġsaman":13062,"ĠhÃ¼zÃ¼n":13063,"Ġoynuyor":13064,"Ġhizmetin":13065,"Ġyetenekli":13066,"ĠyapÄ±t":13067,"Ġsatran":13068,"Ġfilminin":13069,"Ġbireyin":13070,"$$oya":13071,"Ġcay":13072,"Ġkurtarmak":13073,"$$eddin":13074,"teki":13075,"Ġolayda":13076,"ĠgÃ¶rÃ¼ÅŁmek":13077,"Ġtestleri":13078,"ĠdeÄŁerlendirmeleri":13079,"Ġharp":13080,"Ġparlamento":13081,"ĠkenarÄ±nda":13082,"Ġmerkeze":13083,"$$ita":13084,"Ġforex":13085,"Ġyetim":13086,"$$lendiÄŁi":13087,"Ġdayanarak":13088,"ĠyakÄ±ÅŁÄ±k":13089,"Ġtaktir":13090,"Ġ1997":13091,"Ġhedefleri":13092,"Ġedilmez":13093,"ĠkalmÄ±ÅŁtÄ±r":13094,"Ġvodafone":13095,"ĠdediÄŁim":13096,"ĠÃ§eÅŁme":13097,"$$alp":13098,"ĠakÄ±ÅŁÄ±":13099,"Ġlistesine":13100,"Ġengeller":13101,"teÅŁ":13102,"Ġadi":13103,"Ġoptik":13104,"ĠÅŁarkÄ±larÄ±":13105,"$$otek":13106,"ĠyanÄ±ndaki":13107,"Ġgemisi":13108,"Ġbilmedi":13109,"ĠmakamÄ±nda":13110,"Ġhizmetine":13111,"ĠarkasÄ±na":13112,"Ġbelirtiyor":13113,"Ġmahkemeye":13114,"Ġprov":13115,"ĠodasÄ±nda":13116,"ĠkatÄ±larak":13117,"Ġnoktalar":13118,"56":13119,"Ġkendisiyle":13120,"$$stur":13121,"Ġtm":13122,"Ġikil":13123,"Ġhome":13124,"ĠtakÄ±ma":13125,"ĠolmamÄ±z":13126,"$$lesin":13127,"ĠÅŁal":13128,"Ġdesteklem":13129,"Ġmeal":13130,"Ġburjuv":13131,"ĠdÃ¼zenlenmesi":13132,"trabz":13133,"$$eÃ§h":13134,"Ġabdul":13135,"ĠmilliyetÃ§i":13136,"ĠbatÄ±lÄ±":13137,"Ġmensu":13138,"Ġhesaplama":13139,"Ġom":13140,"$$iliÄŁini":13141,"Ġkurutma":13142,"Ġvideolar":13143,"Ġbulunarak":13144,"Ġmd":13145,"$$baÄŁ":13146,"Ġoradaki":13147,"ĠyÃ¼zlÃ¼":13148,"Ġufuk":13149,"ĠÃ¶sym":13150,"Ġmagaz":13151,"yas":13152,"$$esiniz":13153,"$$maris":13154,"nsanÄ±n":13155,"ĠmÄ±sÄ±nÄ±z":13156,"$$onal":13157,"ĠbaÅŁlattÄ±ÄŁÄ±":13158,"ĠalanlarÄ±n":13159,"ĠgÃ¼neÅŁin":13160,"Ġ112":13161,"âĢ¦.":13162,"ĠvereceÄŁi":13163,"ĠyÃ¼ksekliÄŁi":13164,"$$hael":13165,"Ġkonusudur":13166,"ĠkazanÄ±yor":13167,"ĠkatÄ±nda":13168,"ĠÃ§avuÅŁoÄŁlu":13169,",...":13170,"fetÃ¶":13171,"Ġuyruklu":13172,"ĠarttÄ±rmak":13173,"ĠÃ§en":13174,"ĠdeÄŁiÅŁiyor":13175,"Ġkonusuna":13176,"ĠdolaylÄ±":13177,"ĠkarÄ±":13178,"$$trol":13179,"Ġcazip":13180,"Ġbonusu":13181,"ĠkaÃ§an":13182,"Ġgelebilecek":13183,"Ġsigar":13184,"ĠuygulamasÄ±nÄ±":13185,"Ġverecektir":13186,"Ġmakina":13187,"Ġindi":13188,"ĠodasÄ±na":13189,"Ġyedir":13190,"Ġversiyonu":13191,"ĠsÄ±fat":13192,"Ġsony":13193,"Ġkurulacak":13194,"Ġgrubunda":13195,"Ġfena":13196,"Ġtatili":13197,"ĠyaklaÅŁÄ±mÄ±":13198,
[...]
